{
  "version": "1.0",
  "truncation": null,
  "padding": null,
  "added_tokens": [
    {
      "id": 0,
      "content": "[PAD]",
      "single_word": false,
      "lstrip": false,
      "rstrip": false,
      "normalized": false,
      "special": true
    },
    {
      "id": 101,
      "content": "[UNK]",
      "single_word": false,
      "lstrip": false,
      "rstrip": false,
      "normalized": false,
      "special": true
    },
    {
      "id": 102,
      "content": "[CLS]",
      "single_word": false,
      "lstrip": false,
      "rstrip": false,
      "normalized": false,
      "special": true
    },
    {
      "id": 103,
      "content": "[SEP]",
      "single_word": false,
      "lstrip": false,
      "rstrip": false,
      "normalized": false,
      "special": true
    },
    {
      "id": 104,
      "content": "[MASK]",
      "single_word": false,
      "lstrip": false,
      "rstrip": false,
      "normalized": false,
      "special": true
    }
  ],
  "normalizer": {
    "type": "BertNormalizer",
    "clean_text": true,
    "handle_chinese_chars": true,
    "strip_accents": null,
    "lowercase": false
  },
  "pre_tokenizer": {
    "type": "BertPreTokenizer"
  },
  "post_processor": {
    "type": "TemplateProcessing",
    "single": [
      {
        "SpecialToken": {
          "id": "[CLS]",
          "type_id": 0
        }
      },
      {
        "Sequence": {
          "id": "A",
          "type_id": 0
        }
      },
      {
        "SpecialToken": {
          "id": "[SEP]",
          "type_id": 0
        }
      }
    ],
    "pair": [
      {
        "SpecialToken": {
          "id": "[CLS]",
          "type_id": 0
        }
      },
      {
        "Sequence": {
          "id": "A",
          "type_id": 0
        }
      },
      {
        "SpecialToken": {
          "id": "[SEP]",
          "type_id": 0
        }
      },
      {
        "Sequence": {
          "id": "B",
          "type_id": 1
        }
      },
      {
        "SpecialToken": {
          "id": "[SEP]",
          "type_id": 1
        }
      }
    ],
    "special_tokens": {
      "[CLS]": {
        "id": "[CLS]",
        "ids": [
          102
        ],
        "tokens": [
          "[CLS]"
        ]
      },
      "[SEP]": {
        "id": "[SEP]",
        "ids": [
          103
        ],
        "tokens": [
          "[SEP]"
        ]
      }
    }
  },
  "decoder": {
    "type": "WordPiece",
    "prefix": "##",
    "cleanup": true
  },
  "model": {
    "type": "WordPiece",
    "unk_token": "[UNK]",
    "continuing_subword_prefix": "##",
    "max_input_chars_per_word": 100,
    "vocab": {
      "[PAD]": 0,
      "[unused0]": 1,
      "[unused1]": 2,
      "[unused2]": 3,
      "[unused3]": 4,
      "[unused4]": 5,
      "[unused5]": 6,
      "[unused6]": 7,
      "[unused7]": 8,
      "[unused8]": 9,
      "[unused9]": 10,
      "[unused10]": 11,
      "[unused11]": 12,
      "[unused12]": 13,
      "[unused13]": 14,
      "[unused14]": 15,
      "[unused15]": 16,
      "[unused16]": 17,
      "[unused17]": 18,
      "[unused18]": 19,
      "[unused19]": 20,
      "[unused20]": 21,
      "[unused21]": 22,
      "[unused22]": 23,
      "[unused23]": 24,
      "[unused24]": 25,
      "[unused25]": 26,
      "[unused26]": 27,
      "[unused27]": 28,
      "[unused28]": 29,
      "[unused29]": 30,
      "[unused30]": 31,
      "[unused31]": 32,
      "[unused32]": 33,
      "[unused33]": 34,
      "[unused34]": 35,
      "[unused35]": 36,
      "[unused36]": 37,
      "[unused37]": 38,
      "[unused38]": 39,
      "[unused39]": 40,
      "[unused40]": 41,
      "[unused41]": 42,
      "[unused42]": 43,
      "[unused43]": 44,
      "[unused44]": 45,
      "[unused45]": 46,
      "[unused46]": 47,
      "[unused47]": 48,
      "[unused48]": 49,
      "[unused49]": 50,
      "[unused50]": 51,
      "[unused51]": 52,
      "[unused52]": 53,
      "[unused53]": 54,
      "[unused54]": 55,
      "[unused55]": 56,
      "[unused56]": 57,
      "[unused57]": 58,
      "[unused58]": 59,
      "[unused59]": 60,
      "[unused60]": 61,
      "[unused61]": 62,
      "[unused62]": 63,
      "[unused63]": 64,
      "[unused64]": 65,
      "[unused65]": 66,
      "[unused66]": 67,
      "[unused67]": 68,
      "[unused68]": 69,
      "[unused69]": 70,
      "[unused70]": 71,
      "[unused71]": 72,
      "[unused72]": 73,
      "[unused73]": 74,
      "[unused74]": 75,
      "[unused75]": 76,
      "[unused76]": 77,
      "[unused77]": 78,
      "[unused78]": 79,
      "[unused79]": 80,
      "[unused80]": 81,
      "[unused81]": 82,
      "[unused82]": 83,
      "[unused83]": 84,
      "[unused84]": 85,
      "[unused85]": 86,
      "[unused86]": 87,
      "[unused87]": 88,
      "[unused88]": 89,
      "[unused89]": 90,
      "[unused90]": 91,
      "[unused91]": 92,
      "[unused92]": 93,
      "[unused93]": 94,
      "[unused94]": 95,
      "[unused95]": 96,
      "[unused96]": 97,
      "[unused97]": 98,
      "[unused98]": 99,
      "[unused99]": 100,
      "[UNK]": 101,
      "[CLS]": 102,
      "[SEP]": 103,
      "[MASK]": 104,
      "##ta": 105,
      "##en": 106,
      "##in": 107,
      "##is": 108,
      "##an": 109,
      "k": 110,
      ".": 111,
      "##ll": 112,
      "##tä": 113,
      "o": 114,
      "s": 115,
      "j": 116,
      "m": 117,
      "v": 118,
      ",": 119,
      "##it": 120,
      "p": 121,
      "t": 122,
      "##et": 123,
      "##ka": 124,
      "##es": 125,
      "##sa": 126,
      "##ut": 127,
      "##el": 128,
      "##at": 129,
      "##as": 130,
      "##ik": 131,
      "##al": 132,
      "##us": 133,
      "##än": 134,
      "h": 135,
      "##ti": 136,
      "##uo": 137,
      "##un": 138,
      "##er": 139,
      "l": 140,
      "##ks": 141,
      "ja": 142,
      "n": 143,
      "##on": 144,
      "on": 145,
      "##lla": 146,
      "##ei": 147,
      "##os": 148,
      "##aa": 149,
      "##oi": 150,
      "a": 151,
      "##il": 152,
      "ta": 153,
      "##uu": 154,
      "##ar": 155,
      "##een": 156,
      "##ia": 157,
      "ol": 158,
      "##ää": 159,
      "##yt": 160,
      "##ko": 161,
      "##ma": 162,
      "##ul": 163,
      "jo": 164,
      "##ist": 165,
      "-": 166,
      "S": 167,
      "r": 168,
      "##mm": 169,
      "##ista": 170,
      "##ja": 171,
      "##lle": 172,
      "y": 173,
      "##iin": 174,
      "K": 175,
      "##llä": 176,
      "##iv": 177,
      "##to": 178,
      "##sä": 179,
      "va": 180,
      "ko": 181,
      "##te": 182,
      "et": 183,
      "##kin": 184,
      "##ih": 185,
      "T": 186,
      "##inen": 187,
      "M": 188,
      "##itä": 189,
      "##ki": 190,
      "##den": 191,
      "##yö": 192,
      "ei": 193,
      "##utta": 194,
      "##tu": 195,
      "ka": 196,
      "##si": 197,
      "##ke": 198,
      "se": 199,
      "##ur": 200,
      "##ys": 201,
      "##eh": 202,
      "##va": 203,
      "##ksi": 204,
      "##ir": 205,
      "että": 206,
      "##vat": 207,
      "##taa": 208,
      "##im": 209,
      "##ään": 210,
      "##isi": 211,
      "##vä": 212,
      "mu": 213,
      "##uks": 214,
      "##ot": 215,
      "##oit": 216,
      "ku": 217,
      "E": 218,
      "J": 219,
      "tä": 220,
      "P": 221,
      "si": 222,
      "##pa": 223,
      "##ty": 224,
      "##ku": 225,
      "H": 226,
      "vi": 227,
      "en": 228,
      "##tel": 229,
      "e": 230,
      "V": 231,
      "##äh": 232,
      "##isen": 233,
      "##em": 234,
      "##kaan": 235,
      ":": 236,
      "##asta": 237,
      "##uh": 238,
      "##issa": 239,
      "##li": 240,
      "##op": 241,
      "sa": 242,
      "L": 243,
      "ma": 244,
      "\"": 245,
      "##ten": 246,
      "A": 247,
      "kä": 248,
      "##or": 249,
      "##ee": 250,
      "kun": 251,
      "##de": 252,
      "##kä": 253,
      "##uom": 254,
      "##la": 255,
      "##istä": 256,
      "ole": 257,
      "##assa": 258,
      "as": 259,
      "##ina": 260,
      "1": 261,
      "##ises": 262,
      "al": 263,
      "##mä": 264,
      "##ien": 265,
      "la": 266,
      "N": 267,
      "##maan": 268,
      "##usta": 269,
      "##ne": 270,
      "O": 271,
      "to": 272,
      "vuo": 273,
      "##taan": 274,
      "mi": 275,
      "##essa": 276,
      "##ri": 277,
      "kan": 278,
      "##tää": 279,
      "oli": 280,
      "##yn": 281,
      "##pp": 282,
      "##äl": 283,
      "pää": 284,
      "##oim": 285,
      "##ika": 286,
      "##oin": 287,
      "##uk": 288,
      "##hd": 289,
      "##uol": 290,
      "tul": 291,
      "pa": 292,
      "ti": 293,
      "##its": 294,
      "##är": 295,
      "ih": 296,
      "##man": 297,
      "##yös": 298,
      "R": 299,
      "##tö": 300,
      "ra": 301,
      "jos": 302,
      "niin": 303,
      "mutta": 304,
      "?": 305,
      "2": 306,
      "val": 307,
      ")": 308,
      "##jo": 309,
      "##elä": 310,
      "hy": 311,
      "##unn": 312,
      "##vi": 313,
      "##ol": 314,
      "tar": 315,
      "##ua": 316,
      "nä": 317,
      "##emm": 318,
      "pal": 319,
      "I": 320,
      "##llis": 321,
      "##yy": 322,
      "##um": 323,
      "##jan": 324,
      "yh": 325,
      "voi": 326,
      "ker": 327,
      "##ikka": 328,
      "ha": 329,
      "##van": 330,
      "per": 331,
      "##ät": 332,
      "##jen": 333,
      "##ike": 334,
      "##vät": 335,
      "kes": 336,
      "tai": 337,
      "##ala": 338,
      "ovat": 339,
      "##ra": 340,
      "kuin": 341,
      "##tiin": 342,
      "li": 343,
      "er": 344,
      "saa": 345,
      "myös": 346,
      "##oa": 347,
      "(": 348,
      "te": 349,
      "##mp": 350,
      "##esta": 351,
      "##uus": 352,
      "##na": 353,
      "##iten": 354,
      "po": 355,
      "##up": 356,
      "##kka": 357,
      "##äs": 358,
      "var": 359,
      "##issä": 360,
      "hän": 361,
      "tuo": 362,
      "kaik": 363,
      "##uksen": 364,
      "läh": 365,
      "##ella": 366,
      "il": 367,
      "##sin": 368,
      "##ed": 369,
      "##eli": 370,
      "par": 371,
      "##asti": 372,
      "##mis": 373,
      "joka": 374,
      "es": 375,
      "##ana": 376,
      "##ssa": 377,
      "sen": 378,
      "##etta": 379,
      "!": 380,
      "##isesti": 381,
      "mitä": 382,
      "##llut": 383,
      "min": 384,
      "##ittä": 385,
      "##jä": 386,
      "Suom": 387,
      "##ikä": 388,
      "##tan": 389,
      "##ossa": 390,
      "toim": 391,
      "men": 392,
      "##tään": 393,
      "##ha": 394,
      "##essä": 395,
      "##kk": 396,
      "##iksi": 397,
      "teh": 398,
      "san": 399,
      "##ellä": 400,
      "##äiv": 401,
      "##jat": 402,
      "##mme": 403,
      "##om": 404,
      "–": 405,
      "##nyt": 406,
      "##iden": 407,
      "##yh": 408,
      "##itse": 409,
      "##ken": 410,
      "##ön": 411,
      "Y": 412,
      "##vin": 413,
      "us": 414,
      "B": 415,
      "##lo": 416,
      "##da": 417,
      "##iset": 418,
      "ky": 419,
      "##yks": 420,
      "sit": 421,
      "##kaa": 422,
      "##00": 423,
      "##uv": 424,
      "kir": 425,
      "ki": 426,
      "mukaan": 427,
      "##tti": 428,
      "##osta": 429,
      "##isten": 430,
      "##hta": 431,
      "työ": 432,
      "##kon": 433,
      "pel": 434,
      "##tei": 435,
      "##mi": 436,
      "##isin": 437,
      "osa": 438,
      "olla": 439,
      "##han": 440,
      "ar": 441,
      "##uut": 442,
      "##pi": 443,
      "##rit": 444,
      "##inn": 445,
      "##joit": 446,
      "##iko": 447,
      "kuu": 448,
      "käyt": 449,
      "an": 450,
      "##ussa": 451,
      "##estä": 452,
      "##erk": 453,
      "##ivat": 454,
      "##ian": 455,
      "pitä": 456,
      "##teen": 457,
      "kos": 458,
      "##ro": 459,
      "##isia": 460,
      "##illa": 461,
      "##ille": 462,
      "##io": 463,
      "##ita": 464,
      "ni": 465,
      "na": 466,
      "##isä": 467,
      "##oita": 468,
      "##ssä": 469,
      "puol": 470,
      "##tta": 471,
      "sitten": 472,
      "##minen": 473,
      "##mat": 474,
      "ne": 475,
      "##äär": 476,
      "##män": 477,
      "vain": 478,
      "##tuu": 479,
      "##ky": 480,
      "##eet": 481,
      "sitä": 482,
      "##elle": 483,
      "oike": 484,
      "##ettu": 485,
      "##kö": 486,
      "3": 487,
      "hal": 488,
      "##ulla": 489,
      "##ev": 490,
      "nyt": 491,
      "##stä": 492,
      "ed": 493,
      "##tun": 494,
      "##ell": 495,
      "miel": 496,
      "yl": 497,
      "##ila": 498,
      "/": 499,
      "##hin": 500,
      "##ud": 501,
      "##ime": 502,
      "vasta": 503,
      "##alta": 504,
      "##kas": 505,
      "##ann": 506,
      "kanssa": 507,
      "aina": 508,
      "maa": 509,
      "##oja": 510,
      "aika": 511,
      "ollut": 512,
      "U": 513,
      "luo": 514,
      "##tin": 515,
      "os": 516,
      "jäl": 517,
      "##uun": 518,
      "vielä": 519,
      "##pä": 520,
      "##eksi": 521,
      "puh": 522,
      "Ka": 523,
      "väh": 524,
      "f": 525,
      "##keen": 526,
      "olisi": 527,
      "##vaa": 528,
      "##id": 529,
      "##kus": 530,
      "muut": 531,
      "sel": 532,
      "##eri": 533,
      "itse": 534,
      "##uuta": 535,
      "kat": 536,
      "sin": 537,
      "kor": 538,
      "##mään": 539,
      "suu": 540,
      "##jon": 541,
      "suo": 542,
      "##ran": 543,
      "##oh": 544,
      "päiv": 545,
      "b": 546,
      "##uud": 547,
      "##enk": 548,
      "##ni": 549,
      "lop": 550,
      "tiet": 551,
      "##ärj": 552,
      "C": 553,
      "##kun": 554,
      "En": 555,
      "##yttä": 556,
      "##mista": 557,
      "Sa": 558,
      "vaan": 559,
      "elä": 560,
      "##itta": 561,
      "##kan": 562,
      "koko": 563,
      "##lleen": 564,
      "ihm": 565,
      "tun": 566,
      "kul": 567,
      "ver": 568,
      "kuiten": 569,
      "##tia": 570,
      "##ksen": 571,
      "ihan": 572,
      "##vel": 573,
      "kys": 574,
      "F": 575,
      "D": 576,
      "Se": 577,
      "lu": 578,
      "##ui": 579,
      "##malla": 580,
      "yhte": 581,
      "##kään": 582,
      "Ja": 583,
      "##rin": 584,
      "hyvä": 585,
      "##että": 586,
      "##dä": 587,
      "vä": 588,
      "tapa": 589,
      "##men": 590,
      "siitä": 591,
      "tu": 592,
      "5": 593,
      "##eita": 594,
      "##min": 595,
      "##maa": 596,
      "jälkeen": 597,
      "su": 598,
      "eh": 599,
      "seur": 600,
      "##ton": 601,
      "pr": 602,
      "##oo": 603,
      "sy": 604,
      "mon": 605,
      "vaikka": 606,
      "kaikki": 607,
      "Ta": 608,
      "Jos": 609,
      "ot": 610,
      "lö": 611,
      "sekä": 612,
      "kas": 613,
      "##hdo": 614,
      "##nä": 615,
      "##sit": 616,
      "van": 617,
      "tut": 618,
      "4": 619,
      "##uttaa": 620,
      "Ol": 621,
      "ul": 622,
      "op": 623,
      "viime": 624,
      "pit": 625,
      "oh": 626,
      "jot": 627,
      "##aan": 628,
      "##uuden": 629,
      "asi": 630,
      "##ein": 631,
      "##jaa": 632,
      "##nen": 633,
      "La": 634,
      "Tä": 635,
      "kol": 636,
      "jon": 637,
      "vas": 638,
      "##kea": 639,
      "paljon": 640,
      "##ip": 641,
      "mitään": 642,
      "jat": 643,
      "##ikko": 644,
      "is": 645,
      "til": 646,
      "tied": 647,
      "##ärjes": 648,
      "##isiin": 649,
      "tulee": 650,
      "perus": 651,
      "lap": 652,
      "har": 653,
      "##nn": 654,
      "tur": 655,
      "väl": 656,
      "##llinen": 657,
      "hyvin": 658,
      "##ve": 659,
      "##vän": 660,
      "no": 661,
      "voit": 662,
      "Suomen": 663,
      "G": 664,
      "##vo": 665,
      "##mmä": 666,
      "olen": 667,
      "##hän": 668,
      "kyllä": 669,
      "##do": 670,
      "keh": 671,
      "ensi": 672,
      "kuul": 673,
      "##uden": 674,
      "##inta": 675,
      "##ek": 676,
      "##uksia": 677,
      "##emmin": 678,
      "##dän": 679,
      "##kia": 680,
      "##della": 681,
      "##neet": 682,
      "jotka": 683,
      "kuitenkin": 684,
      "yli": 685,
      "##atta": 686,
      "vaih": 687,
      "##eil": 688,
      "##ettiin": 689,
      "##emp": 690,
      "##anta": 691,
      "##iik": 692,
      "##otta": 693,
      "mahdo": 694,
      "he": 695,
      "eivät": 696,
      "##ihin": 697,
      "hi": 698,
      "##se": 699,
      "el": 700,
      "##toi": 701,
      "##ter": 702,
      "##ttä": 703,
      "##so": 704,
      "##lloin": 705,
      "##itty": 706,
      "koska": 707,
      "##etty": 708,
      "##ksa": 709,
      "##isesta": 710,
      "##uutta": 711,
      "yks": 712,
      "koh": 713,
      "jota": 714,
      "so": 715,
      "kiin": 716,
      "vir": 717,
      "hall": 718,
      "##isti": 719,
      "##asi": 720,
      "Jo": 721,
      "kaup": 722,
      "ri": 723,
      "On": 724,
      "##eiden": 725,
      "pien": 726,
      "käy": 727,
      "##osen": 728,
      "##ystä": 729,
      "eikä": 730,
      "##iä": 731,
      "20": 732,
      "##gin": 733,
      "##sta": 734,
      "las": 735,
      "##ea": 736,
      "Hän": 737,
      "##nna": 738,
      "aik": 739,
      "teke": 740,
      "suom": 741,
      "aut": 742,
      "esim": 743,
      "muuta": 744,
      "##kunn": 745,
      "##mmen": 746,
      "asia": 747,
      "##isiä": 748,
      "hel": 749,
      "19": 750,
      "pitää": 751,
      "##uor": 752,
      "##tom": 753,
      "##enn": 754,
      "##jel": 755,
      "##ilö": 756,
      "ilm": 757,
      "jossa": 758,
      "liik": 759,
      "##kko": 760,
      "pys": 761,
      "mat": 762,
      "##vasti": 763,
      "nim": 764,
      "##ity": 765,
      "##tua": 766,
      "vuoden": 767,
      "Va": 768,
      "sillä": 769,
      "##eitä": 770,
      "Ei": 771,
      "##ust": 772,
      "##ukku": 773,
      "##iseen": 774,
      "##toa": 775,
      "##massa": 776,
      "##kki": 777,
      "##iva": 778,
      "##oiden": 779,
      "##oilla": 780,
      "het": 781,
      "in": 782,
      "##yr": 783,
      "kil": 784,
      "ennen": 785,
      "##jän": 786,
      "##emmän": 787,
      "6": 788,
      "suur": 789,
      "##val": 790,
      "huo": 791,
      "##esi": 792,
      "kann": 793,
      "##itus": 794,
      "##uot": 795,
      "jul": 796,
      "ter": 797,
      "##ati": 798,
      "##ojen": 799,
      "joh": 800,
      "noin": 801,
      "eli": 802,
      "##yty": 803,
      "huom": 804,
      "##llista": 805,
      "kut": 806,
      "##oks": 807,
      "##ässä": 808,
      "##re": 809,
      "ede": 810,
      "##tanut": 811,
      "d": 812,
      "##san": 813,
      "##eidän": 814,
      "siis": 815,
      "##iinä": 816,
      "W": 817,
      "kesk": 818,
      "##kim": 819,
      "Si": 820,
      "kon": 821,
      "##inä": 822,
      "Hel": 823,
      "##enä": 824,
      "##telu": 825,
      "##kais": 826,
      "##oma": 827,
      "myö": 828,
      "yrit": 829,
      "##eillä": 830,
      "mieh": 831,
      "##ukset": 832,
      "syn": 833,
      "##per": 834,
      "vaik": 835,
      "To": 836,
      "##johta": 837,
      "##ihen": 838,
      "##ittää": 839,
      "##pail": 840,
      "ajat": 841,
      "##isa": 842,
      "maail": 843,
      "##var": 844,
      "##ällä": 845,
      "##enkilö": 846,
      "##oon": 847,
      "laps": 848,
      "sil": 849,
      "ettei": 850,
      "sop": 851,
      "usko": 852,
      "miten": 853,
      "uus": 854,
      "Ko": 855,
      "tunn": 856,
      "alu": 857,
      "koul": 858,
      "##kel": 859,
      "määr": 860,
      "joten": 861,
      "vuonna": 862,
      "##eltä": 863,
      "##misen": 864,
      "##etaan": 865,
      "##lan": 866,
      "kunn": 867,
      "eur": 868,
      "ai": 869,
      "mil": 870,
      "tämä": 871,
      "##oista": 872,
      "##via": 873,
      "##yky": 874,
      "##uksessa": 875,
      "##ker": 876,
      "##vää": 877,
      "kirjoit": 878,
      "lisä": 879,
      "##puol": 880,
      "Mutta": 881,
      "##mia": 882,
      "pi": 883,
      "Ra": 884,
      "##nut": 885,
      "tos": 886,
      "##gel": 887,
      "jää": 888,
      "hä": 889,
      "##liit": 890,
      "siihen": 891,
      "lä": 892,
      "##ihe": 893,
      "raken": 894,
      "##eille": 895,
      "pääs": 896,
      "##uta": 897,
      "##me": 898,
      "mar": 899,
      "tapah": 900,
      "saat": 901,
      "##uuri": 902,
      "kerto": 903,
      "##isteri": 904,
      "##le": 905,
      "vanh": 906,
      "lis": 907,
      "##illä": 908,
      "7": 909,
      "its": 910,
      "ensimmä": 911,
      "ulko": 912,
      "taas": 913,
      "##din": 914,
      "vo": 915,
      "##istö": 916,
      "tule": 917,
      "tarv": 918,
      "mikä": 919,
      "200": 920,
      "##etti": 921,
      "##ver": 922,
      "##ittaa": 923,
      "lopp": 924,
      "vähän": 925,
      "hänen": 926,
      "##oihin": 927,
      "kansa": 928,
      "sella": 929,
      "##unut": 930,
      "##ula": 931,
      "##una": 932,
      "##ikin": 933,
      "##voit": 934,
      "##mmat": 935,
      "aikana": 936,
      "Helsin": 937,
      "##empi": 938,
      "Vi": 939,
      "##elta": 940,
      "##llisen": 941,
      "##lta": 942,
      "eri": 943,
      "##ivan": 944,
      "##olla": 945,
      "##ulle": 946,
      "enemmän": 947,
      "niitä": 948,
      "ihmis": 949,
      "Kun": 950,
      "kaupun": 951,
      "näyt": 952,
      "##yksen": 953,
      "siinä": 954,
      "vastaan": 955,
      "8": 956,
      "##ittel": 957,
      "##daan": 958,
      "edes": 959,
      "Mi": 960,
      "##uja": 961,
      "suomala": 962,
      "prosen": 963,
      "keskus": 964,
      "ain": 965,
      "##isessa": 966,
      "##uka": 967,
      "##paa": 968,
      "##ym": 969,
      "tarko": 970,
      "##yys": 971,
      "##ali": 972,
      "merk": 973,
      "kah": 974,
      "jonka": 975,
      "##isto": 976,
      "##era": 977,
      "##kem": 978,
      "Ma": 979,
      "suh": 980,
      "##ytyy": 981,
      "##ira": 982,
      "saan": 983,
      "maan": 984,
      "talo": 985,
      "##dot": 986,
      "yhd": 987,
      "##teet": 988,
      "##kana": 989,
      "epä": 990,
      "##istu": 991,
      "##iti": 992,
      "##usi": 993,
      "Ha": 994,
      "toi": 995,
      "henkilö": 996,
      "##oitta": 997,
      "00": 998,
      "Nä": 999,
      "##tila": 1000,
      "##ikon": 1001,
      "ajan": 1002,
      "##ivät": 1003,
      "kar": 1004,
      "##istel": 1005,
      "##tunut": 1006,
      "##llisesti": 1007,
      "##lä": 1008,
      "rah": 1009,
      "##ans": 1010,
      "mies": 1011,
      "##koi": 1012,
      "tehdä": 1013,
      "tie": 1014,
      "##ilta": 1015,
      "järjes": 1016,
      "##jien": 1017,
      "##yyn": 1018,
      "siv": 1019,
      "##eseen": 1020,
      "enää": 1021,
      "jä": 1022,
      "##alan": 1023,
      "##sti": 1024,
      "##tyy": 1025,
      "ään": 1026,
      "##esti": 1027,
      "##viä": 1028,
      "todella": 1029,
      "Mar": 1030,
      "huol": 1031,
      "##he": 1032,
      "Pa": 1033,
      "yksi": 1034,
      "tämän": 1035,
      "sis": 1036,
      "##lin": 1037,
      "joku": 1038,
      "##iseksi": 1039,
      "suunn": 1040,
      "kaksi": 1041,
      "##mmär": 1042,
      "##kkin": 1043,
      "##ast": 1044,
      "av": 1045,
      "##osti": 1046,
      "ke": 1047,
      "##itys": 1048,
      "9": 1049,
      "##pää": 1050,
      "tässä": 1051,
      "##utus": 1052,
      "##pan": 1053,
      "vuotta": 1054,
      "##iks": 1055,
      "halu": 1056,
      "han": 1057,
      "##eman": 1058,
      "tuli": 1059,
      "##po": 1060,
      "##miseen": 1061,
      "##valla": 1062,
      "jotain": 1063,
      "##itti": 1064,
      "##tele": 1065,
      "nyky": 1066,
      "##mmin": 1067,
      "juuri": 1068,
      "##asto": 1069,
      "##ven": 1070,
      "lo": 1071,
      "##päiv": 1072,
      "ty": 1073,
      "##llan": 1074,
      "syö": 1075,
      "aihe": 1076,
      "##ikki": 1077,
      "0": 1078,
      "201": 1079,
      "##kkaa": 1080,
      "seuraa": 1081,
      "##ig": 1082,
      "##unta": 1083,
      "kau": 1084,
      "##ikan": 1085,
      "siir": 1086,
      "##yd": 1087,
      "kuten": 1088,
      "oma": 1089,
      "##johtaja": 1090,
      "10": 1091,
      "##ttia": 1092,
      "##istaa": 1093,
      "met": 1094,
      "tö": 1095,
      "An": 1096,
      "olevan": 1097,
      "kats": 1098,
      "##ari": 1099,
      "##alla": 1100,
      "rat": 1101,
      "##tui": 1102,
      "##ite": 1103,
      "muo": 1104,
      "näh": 1105,
      "tilan": 1106,
      "me": 1107,
      "olet": 1108,
      "##tik": 1109,
      "nel": 1110,
      "##pal": 1111,
      "##uttu": 1112,
      "##ch": 1113,
      "##lli": 1114,
      "paika": 1115,
      "##utu": 1116,
      "##erkiksi": 1117,
      "##kseen": 1118,
      "##kir": 1119,
      "ainakin": 1120,
      "##ukseen": 1121,
      ";": 1122,
      "##tien": 1123,
      "työn": 1124,
      "Al": 1125,
      "##ministeri": 1126,
      "pois": 1127,
      "##kee": 1128,
      "##joon": 1129,
      "Nyt": 1130,
      "Tämä": 1131,
      "##oop": 1132,
      "Suomessa": 1133,
      "ongel": 1134,
      "##kuun": 1135,
      "le": 1136,
      "##jaan": 1137,
      "##llisuus": 1138,
      "ymmär": 1139,
      "##änä": 1140,
      "olivat": 1141,
      "maal": 1142,
      "##ili": 1143,
      "g": 1144,
      "yle": 1145,
      "her": 1146,
      "sat": 1147,
      "halua": 1148,
      "väli": 1149,
      "##von": 1150,
      "##eni": 1151,
      "##kona": 1152,
      "##di": 1153,
      "ä": 1154,
      "ilman": 1155,
      "kär": 1156,
      "##kes": 1157,
      "tär": 1158,
      "käsit": 1159,
      "Jum": 1160,
      "Olen": 1161,
      "##kij": 1162,
      "ehkä": 1163,
      "pid": 1164,
      "kertoo": 1165,
      "hyö": 1166,
      "laa": 1167,
      "poh": 1168,
      "##oissa": 1169,
      "ymp": 1170,
      "ruo": 1171,
      "palvel": 1172,
      "vah": 1173,
      "No": 1174,
      "nuor": 1175,
      "sanoo": 1176,
      "Eur": 1177,
      "muka": 1178,
      "toimi": 1179,
      "sisä": 1180,
      "Val": 1181,
      "pitäisi": 1182,
      "Ti": 1183,
      "kiinn": 1184,
      "##yllä": 1185,
      "##eensä": 1186,
      "##tiö": 1187,
      "pain": 1188,
      "käyttä": 1189,
      "##kunta": 1190,
      "##vien": 1191,
      "sanoi": 1192,
      "##est": 1193,
      "onn": 1194,
      "miljoon": 1195,
      "tän": 1196,
      "Venä": 1197,
      "##kein": 1198,
      "maailman": 1199,
      "##isestä": 1200,
      "Min": 1201,
      "saada": 1202,
      "##toon": 1203,
      "##erg": 1204,
      "om": 1205,
      "liitty": 1206,
      "##uksi": 1207,
      "ik": 1208,
      "nop": 1209,
      "mielestä": 1210,
      "c": 1211,
      "##toja": 1212,
      "lait": 1213,
      "##äsen": 1214,
      "muu": 1215,
      "##enkin": 1216,
      "##uko": 1217,
      "##ksiä": 1218,
      "lää": 1219,
      "valti": 1220,
      "##ytä": 1221,
      "##teita": 1222,
      "sai": 1223,
      "siellä": 1224,
      "##aam": 1225,
      "##elin": 1226,
      "kilpail": 1227,
      "sää": 1228,
      "pah": 1229,
      "re": 1230,
      "aikaa": 1231,
      "##tis": 1232,
      "##ukka": 1233,
      "##rat": 1234,
      "opp": 1235,
      "##uksesta": 1236,
      "vaat": 1237,
      "huon": 1238,
      "##yä": 1239,
      "arvi": 1240,
      "##ästä": 1241,
      "minä": 1242,
      "##järjes": 1243,
      "näin": 1244,
      "##ös": 1245,
      "##pu": 1246,
      "tote": 1247,
      "##isille": 1248,
      "##mpi": 1249,
      "pan": 1250,
      "tällä": 1251,
      "##sia": 1252,
      "ho": 1253,
      "##mman": 1254,
      "pelaa": 1255,
      "Yhd": 1256,
      "##isuus": 1257,
      "taka": 1258,
      "neuv": 1259,
      "ur": 1260,
      "It": 1261,
      "tal": 1262,
      "##mistä": 1263,
      "ro": 1264,
      "##uudessa": 1265,
      "vih": 1266,
      "aivan": 1267,
      "jopa": 1268,
      "##ittäin": 1269,
      "main": 1270,
      "##onen": 1271,
      "ken": 1272,
      "sä": 1273,
      "##ituksen": 1274,
      "Ne": 1275,
      "##yttö": 1276,
      "jät": 1277,
      "silloin": 1278,
      "##uul": 1279,
      "yhteis": 1280,
      "vastaa": 1281,
      "kertaa": 1282,
      "kyse": 1283,
      "##tyä": 1284,
      "turva": 1285,
      "maksa": 1286,
      "##teli": 1287,
      "##teessa": 1288,
      "aloit": 1289,
      "##og": 1290,
      "##ttö": 1291,
      "##usa": 1292,
      "nous": 1293,
      "##ho": 1294,
      "##eilla": 1295,
      "##ess": 1296,
      "määrä": 1297,
      "##kunnan": 1298,
      "##ost": 1299,
      "pol": 1300,
      "vaike": 1301,
      "missä": 1302,
      "kohd": 1303,
      "lisää": 1304,
      "koti": 1305,
      "EU": 1306,
      "Kes": 1307,
      "alkaa": 1308,
      "mus": 1309,
      "käyttö": 1310,
      "i": 1311,
      "Tur": 1312,
      "lisäksi": 1313,
      "selv": 1314,
      "kautta": 1315,
      "##ket": 1316,
      "vai": 1317,
      "##tynyt": 1318,
      "johta": 1319,
      "'": 1320,
      "tarjo": 1321,
      "15": 1322,
      "prosenttia": 1323,
      "un": 1324,
      "poli": 1325,
      "lähes": 1326,
      "varm": 1327,
      "##keä": 1328,
      "000": 1329,
      "##mer": 1330,
      "##esiden": 1331,
      "##iaan": 1332,
      "Li": 1333,
      "##oku": 1334,
      "##kat": 1335,
      "uh": 1336,
      "ras": 1337,
      "päät": 1338,
      "tor": 1339,
      "##kkä": 1340,
      "Euroop": 1341,
      "##taja": 1342,
      "##kit": 1343,
      "lin": 1344,
      "##mässä": 1345,
      "##ujen": 1346,
      "##eella": 1347,
      "##oille": 1348,
      "w": 1349,
      "saman": 1350,
      "voisi": 1351,
      "##ukko": 1352,
      "syy": 1353,
      "ottaa": 1354,
      "##kke": 1355,
      "##tuks": 1356,
      "##tar": 1357,
      "tutkim": 1358,
      "esimerkiksi": 1359,
      "##ikk": 1360,
      "koi": 1361,
      "kerran": 1362,
      "##ikö": 1363,
      "tuh": 1364,
      "##ing": 1365,
      "##itel": 1366,
      "##usten": 1367,
      "Ar": 1368,
      "kier": 1369,
      "##ulta": 1370,
      "juo": 1371,
      "##ani": 1372,
      "##mo": 1373,
      "oikein": 1374,
      "##västi": 1375,
      "kasv": 1376,
      "arv": 1377,
      "päätö": 1378,
      "##itsi": 1379,
      "##eng": 1380,
      "mo": 1381,
      "jäsen": 1382,
      "ve": 1383,
      "yllä": 1384,
      "##lu": 1385,
      "##innan": 1386,
      "##äni": 1387,
      "##st": 1388,
      "##ito": 1389,
      "täällä": 1390,
      "maks": 1391,
      "##utti": 1392,
      "lain": 1393,
      "kis": 1394,
      "osaa": 1395,
      "Yhdys": 1396,
      "##osi": 1397,
      "##uoli": 1398,
      "mel": 1399,
      "##väl": 1400,
      "##ysin": 1401,
      "##aar": 1402,
      "kuinka": 1403,
      "uud": 1404,
      "##ynyt": 1405,
      "##llist": 1406,
      "Ku": 1407,
      "Is": 1408,
      "yhtä": 1409,
      "##jia": 1410,
      "##lainen": 1411,
      "##kaup": 1412,
      "##yttää": 1413,
      "Po": 1414,
      "##astaan": 1415,
      "Per": 1416,
      "##össä": 1417,
      "##osa": 1418,
      "tuom": 1419,
      "muun": 1420,
      "Lisä": 1421,
      "##attaa": 1422,
      "seura": 1423,
      "##tyi": 1424,
      "##llen": 1425,
      "12": 1426,
      "Poh": 1427,
      "##kul": 1428,
      "##isella": 1429,
      "##ister": 1430,
      "##ansa": 1431,
      "##osia": 1432,
      "kuuka": 1433,
      "##kuu": 1434,
      "onko": 1435,
      "##ostaa": 1436,
      "##pe": 1437,
      "##ura": 1438,
      "##yör": 1439,
      "ohjel": 1440,
      "pitkä": 1441,
      "viikon": 1442,
      "##kasta": 1443,
      "##iste": 1444,
      "oman": 1445,
      "##don": 1446,
      "tyy": 1447,
      "##ori": 1448,
      "alku": 1449,
      "In": 1450,
      "erity": 1451,
      "Sen": 1452,
      "jal": 1453,
      "mukana": 1454,
      "julk": 1455,
      "sar": 1456,
      "##orma": 1457,
      "asian": 1458,
      "terve": 1459,
      "##telee": 1460,
      "##iselle": 1461,
      "toinen": 1462,
      "##ssi": 1463,
      "Il": 1464,
      "##til": 1465,
      "##mää": 1466,
      "tullut": 1467,
      "saanut": 1468,
      "edelleen": 1469,
      "##dan": 1470,
      "Niin": 1471,
      "jout": 1472,
      "toimin": 1473,
      "ryh": 1474,
      "pro": 1475,
      "##valta": 1476,
      "##mien": 1477,
      "##ähkö": 1478,
      "##llin": 1479,
      "len": 1480,
      "koskaan": 1481,
      "##ikkaa": 1482,
      "##ss": 1483,
      "##isista": 1484,
      "##ale": 1485,
      "väär": 1486,
      "lähte": 1487,
      "fi": 1488,
      "ilmoit": 1489,
      "30": 1490,
      "päivä": 1491,
      "josta": 1492,
      "tuot": 1493,
      "leh": 1494,
      "muuten": 1495,
      "##annut": 1496,
      "luv": 1497,
      "tek": 1498,
      "##tojen": 1499,
      "tehtä": 1500,
      "##emassa": 1501,
      "##öl": 1502,
      "rauh": 1503,
      "pu": 1504,
      "##isessä": 1505,
      "##oike": 1506,
      "antaa": 1507,
      "takia": 1508,
      "##tal": 1509,
      "##utum": 1510,
      "hyväks": 1511,
      "##isivat": 1512,
      "##tetaan": 1513,
      "##antaina": 1514,
      "##misesta": 1515,
      "joukku": 1516,
      "kertoi": 1517,
      "##emme": 1518,
      "hieman": 1519,
      "—": 1520,
      "##ras": 1521,
      "tätä": 1522,
      "##ynn": 1523,
      "##uista": 1524,
      "tila": 1525,
      "##tt": 1526,
      "por": 1527,
      "##isk": 1528,
      "heti": 1529,
      "alle": 1530,
      "kyl": 1531,
      "Ruot": 1532,
      "##llaan": 1533,
      "voidaan": 1534,
      "Myös": 1535,
      "toisen": 1536,
      "yksin": 1537,
      "parha": 1538,
      "aikaan": 1539,
      "##ettava": 1540,
      "##kti": 1541,
      "tieto": 1542,
      "valta": 1543,
      "uut": 1544,
      "mm": 1545,
      "##ue": 1546,
      "joita": 1547,
      "Kor": 1548,
      "##tön": 1549,
      "kysym": 1550,
      "##hti": 1551,
      "tähän": 1552,
      "vuos": 1553,
      "niiden": 1554,
      "mahdollis": 1555,
      "##ittu": 1556,
      "##vuo": 1557,
      "tasa": 1558,
      "##kku": 1559,
      "##iss": 1560,
      "usein": 1561,
      "##uuks": 1562,
      "presiden": 1563,
      "Mitä": 1564,
      "##lleet": 1565,
      "vaa": 1566,
      "##älä": 1567,
      "nope": 1568,
      "##dään": 1569,
      "##pall": 1570,
      "valm": 1571,
      "välillä": 1572,
      "yr": 1573,
      "##talo": 1574,
      "##kuussa": 1575,
      "liian": 1576,
      "ilma": 1577,
      "help": 1578,
      "aj": 1579,
      "Kir": 1580,
      "##eessa": 1581,
      "lev": 1582,
      "##kohta": 1583,
      "käytä": 1584,
      "kolme": 1585,
      "##otto": 1586,
      "täysin": 1587,
      "varmaan": 1588,
      "tapahtu": 1589,
      "##ees": 1590,
      "erila": 1591,
      "muita": 1592,
      "pä": 1593,
      "##atti": 1594,
      "tavoit": 1595,
      "##tuna": 1596,
      "kymmen": 1597,
      "##emaan": 1598,
      "ap": 1599,
      "vel": 1600,
      "Helsingin": 1601,
      "uskon": 1602,
      "Itse": 1603,
      "euroa": 1604,
      "Ni": 1605,
      "##uva": 1606,
      "##ota": 1607,
      "joskus": 1608,
      "##yön": 1609,
      "ratkais": 1610,
      "##kää": 1611,
      "puheen": 1612,
      "mistä": 1613,
      "Kyllä": 1614,
      "rakenn": 1615,
      "##kellä": 1616,
      "tod": 1617,
      "ottel": 1618,
      "Ä": 1619,
      "tavalla": 1620,
      "He": 1621,
      "##teiden": 1622,
      "hoi": 1623,
      "Suomi": 1624,
      "työs": 1625,
      "##kut": 1626,
      "menee": 1627,
      "myöh": 1628,
      "heidän": 1629,
      "##änn": 1630,
      "##iston": 1631,
      "tiedä": 1632,
      "##jois": 1633,
      "##ksan": 1634,
      "Vuo": 1635,
      "ammat": 1636,
      "ala": 1637,
      "kr": 1638,
      "jolla": 1639,
      "puut": 1640,
      "##ttuu": 1641,
      "löytyy": 1642,
      "Pal": 1643,
      "Ro": 1644,
      "11": 1645,
      "vuoksi": 1646,
      "##iha": 1647,
      "##oni": 1648,
      "##jana": 1649,
      "aam": 1650,
      "##paan": 1651,
      "suuri": 1652,
      "kaiken": 1653,
      "##llisia": 1654,
      "##isit": 1655,
      "tot": 1656,
      "kuva": 1657,
      "aiko": 1658,
      "luonn": 1659,
      "uusi": 1660,
      "##nin": 1661,
      "mun": 1662,
      "##ulu": 1663,
      "jär": 1664,
      "##pel": 1665,
      "Ki": 1666,
      "Tar": 1667,
      "yleensä": 1668,
      "##voin": 1669,
      "18": 1670,
      "päästä": 1671,
      "kur": 1672,
      "##masta": 1673,
      "##pit": 1674,
      "sopim": 1675,
      "kokem": 1676,
      "run": 1677,
      "Var": 1678,
      "tästä": 1679,
      "sähkö": 1680,
      "ympär": 1681,
      "Tuo": 1682,
      "lei": 1683,
      "matka": 1684,
      "käyttää": 1685,
      "ent": 1686,
      "##ikään": 1687,
      "arvo": 1688,
      "tekee": 1689,
      "ir": 1690,
      "##emmat": 1691,
      "##lliset": 1692,
      "##usti": 1693,
      "##tit": 1694,
      "yhteen": 1695,
      "kolm": 1696,
      "ava": 1697,
      "##ang": 1698,
      "##ikku": 1699,
      "##yyttä": 1700,
      "kirja": 1701,
      "##inväl": 1702,
      "varmasti": 1703,
      "kaa": 1704,
      "ven": 1705,
      "tosi": 1706,
      "##itsem": 1707,
      "samalla": 1708,
      "Lisäksi": 1709,
      "vahv": 1710,
      "Na": 1711,
      "##estaan": 1712,
      "Kar": 1713,
      "##kkää": 1714,
      "kuitenkaan": 1715,
      "pur": 1716,
      "saira": 1717,
      "##ff": 1718,
      "##neksi": 1719,
      "##kiä": 1720,
      "Van": 1721,
      "minun": 1722,
      "mer": 1723,
      "##uksista": 1724,
      "##itsee": 1725,
      "tänään": 1726,
      "yhden": 1727,
      "teki": 1728,
      "myy": 1729,
      "##iltä": 1730,
      "vuosi": 1731,
      "##miin": 1732,
      "sijoit": 1733,
      "opet": 1734,
      "elämän": 1735,
      "asti": 1736,
      "edusta": 1737,
      "##janta": 1738,
      "##palvel": 1739,
      "muassa": 1740,
      "ihmiset": 1741,
      "##jät": 1742,
      "jatku": 1743,
      "##kkaan": 1744,
      "peruste": 1745,
      "##mättä": 1746,
      "##ipp": 1747,
      "##yden": 1748,
      "kiinni": 1749,
      "##por": 1750,
      "otta": 1751,
      "##kra": 1752,
      "uuden": 1753,
      "sija": 1754,
      "##lais": 1755,
      "esiin": 1756,
      "##istus": 1757,
      "##kusta": 1758,
      "##log": 1759,
      "tarvitse": 1760,
      "menn": 1761,
      "pala": 1762,
      "##pin": 1763,
      "##isena": 1764,
      "voin": 1765,
      "ystä": 1766,
      "##uudesta": 1767,
      "##olog": 1768,
      "San": 1769,
      "tulla": 1770,
      "##etään": 1771,
      "vuod": 1772,
      "omista": 1773,
      "liit": 1774,
      "tode": 1775,
      "Es": 1776,
      "##päin": 1777,
      "kal": 1778,
      "##mpp": 1779,
      "miksi": 1780,
      "##eihin": 1781,
      "ilta": 1782,
      "##ehto": 1783,
      "kok": 1784,
      "mieli": 1785,
      "meidän": 1786,
      "Hy": 1787,
      "pyy": 1788,
      "##vir": 1789,
      "juttu": 1790,
      "##kor": 1791,
      "odot": 1792,
      "Pää": 1793,
      "lapsi": 1794,
      "Onko": 1795,
      "sisäl": 1796,
      "yliop": 1797,
      "##ise": 1798,
      "##ityks": 1799,
      "##ona": 1800,
      "kaupungin": 1801,
      "##alu": 1802,
      "sano": 1803,
      "Par": 1804,
      "##äärä": 1805,
      "##kil": 1806,
      "kuol": 1807,
      "Eli": 1808,
      "pysty": 1809,
      "##onta": 1810,
      "##itten": 1811,
      "##otus": 1812,
      "muist": 1813,
      "uu": 1814,
      "ann": 1815,
      "kev": 1816,
      "lasten": 1817,
      "tarp": 1818,
      "tietää": 1819,
      "##kiin": 1820,
      "jotta": 1821,
      "##kal": 1822,
      "kuo": 1823,
      "##ustus": 1824,
      "lau": 1825,
      "haluaa": 1826,
      "##teja": 1827,
      "Jees": 1828,
      "käs": 1829,
      "kään": 1830,
      "vapa": 1831,
      "sama": 1832,
      "##ino": 1833,
      "##su": 1834,
      "%": 1835,
      "##ela": 1836,
      "pari": 1837,
      "iso": 1838,
      "mä": 1839,
      "##ck": 1840,
      "toiv": 1841,
      "##etin": 1842,
      "kommen": 1843,
      "##ottaa": 1844,
      "##att": 1845,
      "##osto": 1846,
      "Yh": 1847,
      "##ion": 1848,
      "norma": 1849,
      "onnist": 1850,
      "mut": 1851,
      "kiv": 1852,
      "##imp": 1853,
      "varsin": 1854,
      "##ettua": 1855,
      "##yl": 1856,
      "##ysti": 1857,
      "##mar": 1858,
      "hoit": 1859,
      "vaihto": 1860,
      "199": 1861,
      "##itos": 1862,
      "mur": 1863,
      "alka": 1864,
      "nuo": 1865,
      "tuntuu": 1866,
      "eloku": 1867,
      "markkin": 1868,
      "##uur": 1869,
      "kirj": 1870,
      "sosia": 1871,
      "##eto": 1872,
      "Te": 1873,
      "##kiv": 1874,
      "perh": 1875,
      "##isenä": 1876,
      "harjoit": 1877,
      "##kar": 1878,
      "##ensä": 1879,
      "miljoonaa": 1880,
      "tyh": 1881,
      "Kä": 1882,
      "Euroopan": 1883,
      "osoit": 1884,
      "yhteist": 1885,
      "##miä": 1886,
      "kukaan": 1887,
      "##tr": 1888,
      "Vir": 1889,
      "suun": 1890,
      "anta": 1891,
      "kiel": 1892,
      "”": 1893,
      "##aamat": 1894,
      "##mällä": 1895,
      "meillä": 1896,
      "##onn": 1897,
      "##uin": 1898,
      "##vassa": 1899,
      "16": 1900,
      "##oksen": 1901,
      "##ps": 1902,
      "13": 1903,
      "##vasta": 1904,
      "verran": 1905,
      "ikä": 1906,
      "##ude": 1907,
      "sinä": 1908,
      "voim": 1909,
      "mahdollista": 1910,
      "pist": 1911,
      "erittäin": 1912,
      "hui": 1913,
      "##pol": 1914,
      "##unnunta": 1915,
      "##son": 1916,
      "vier": 1917,
      "keskustel": 1918,
      "kannattaa": 1919,
      "Har": 1920,
      "##len": 1921,
      "##koh": 1922,
      "nämä": 1923,
      "Er": 1924,
      "##eista": 1925,
      "alkoi": 1926,
      "##ju": 1927,
      "##enne": 1928,
      "14": 1929,
      "##miseksi": 1930,
      "lyh": 1931,
      "##kot": 1932,
      "##ms": 1933,
      "##der": 1934,
      "Kos": 1935,
      "##koa": 1936,
      "sinne": 1937,
      "Kr": 1938,
      "aja": 1939,
      "muiden": 1940,
      "takaisin": 1941,
      "##emi": 1942,
      "aiemmin": 1943,
      "##tänyt": 1944,
      "vapaa": 1945,
      "##raan": 1946,
      "ihmisiä": 1947,
      "perjanta": 1948,
      "##riä": 1949,
      "##ikke": 1950,
      "##imi": 1951,
      "##vaan": 1952,
      "##mät": 1953,
      "##sim": 1954,
      "##ard": 1955,
      "##ena": 1956,
      "sanoa": 1957,
      "näkö": 1958,
      "##kien": 1959,
      "##kinn": 1960,
      "##alin": 1961,
      "##alainen": 1962,
      "Viime": 1963,
      "##eta": 1964,
      "kansan": 1965,
      "##heil": 1966,
      "##kerta": 1967,
      "kesä": 1968,
      "tuolla": 1969,
      "juh": 1970,
      "##uri": 1971,
      "##atio": 1972,
      "##neen": 1973,
      "ihminen": 1974,
      "Kaikki": 1975,
      "mennä": 1976,
      "##ppi": 1977,
      "viikko": 1978,
      "py": 1979,
      "##anoma": 1980,
      "hom": 1981,
      "##isuudessa": 1982,
      "Tul": 1983,
      "mol": 1984,
      "MM": 1985,
      "tuon": 1986,
      "##empaa": 1987,
      "kuuluu": 1988,
      "tunte": 1989,
      "arvioi": 1990,
      "yhdessä": 1991,
      "##imo": 1992,
      "##ör": 1993,
      "##haa": 1994,
      "vara": 1995,
      "##ulun": 1996,
      "tah": 1997,
      "mihin": 1998,
      "kuulu": 1999,
      "##ce": 2000,
      "Venäjän": 2001,
      "sur": 2002,
      "##öt": 2003,
      "saattaa": 2004,
      "##gan": 2005,
      "##opp": 2006,
      "##ros": 2007,
      "##ottel": 2008,
      "myön": 2009,
      "päivän": 2010,
      "tuleva": 2011,
      "##tuksen": 2012,
      "##ehti": 2013,
      "##matta": 2014,
      "yrittä": 2015,
      "##järjestel": 2016,
      "kaun": 2017,
      "työnte": 2018,
      "Läh": 2019,
      "katso": 2020,
      "olleet": 2021,
      "##uuteen": 2022,
      "näyttää": 2023,
      "riittä": 2024,
      "sinun": 2025,
      "kovin": 2026,
      "Pohjois": 2027,
      "viera": 2028,
      "##ottu": 2029,
      "osallist": 2030,
      "tehty": 2031,
      "mieltä": 2032,
      "##mma": 2033,
      "hien": 2034,
      "##koon": 2035,
      "##ikaa": 2036,
      "kansainväl": 2037,
      "##dy": 2038,
      "tälla": 2039,
      "Jumalan": 2040,
      "jolloin": 2041,
      "##urin": 2042,
      "##ero": 2043,
      "##teeseen": 2044,
      "kohta": 2045,
      "voivat": 2046,
      "##isuuden": 2047,
      "##vissa": 2048,
      "niistä": 2049,
      "kahden": 2050,
      "##jet": 2051,
      "##opim": 2052,
      "sään": 2053,
      "näky": 2054,
      "##jasta": 2055,
      "perin": 2056,
      "päälle": 2057,
      "toista": 2058,
      "##yssä": 2059,
      "sul": 2060,
      "elämä": 2061,
      "##ba": 2062,
      "##ikkö": 2063,
      "muod": 2064,
      "50": 2065,
      "jut": 2066,
      "johon": 2067,
      "muista": 2068,
      "silti": 2069,
      "##laisia": 2070,
      "##kos": 2071,
      "##esty": 2072,
      "pyr": 2073,
      "##eja": 2074,
      "Vaikka": 2075,
      "kaikkia": 2076,
      "##ähän": 2077,
      "joiden": 2078,
      "valtion": 2079,
      "##ikolla": 2080,
      "suosit": 2081,
      "##asin": 2082,
      "##istää": 2083,
      "##ensa": 2084,
      "lah": 2085,
      "##ryh": 2086,
      "or": 2087,
      "##jassa": 2088,
      "##vaih": 2089,
      "minuut": 2090,
      "##voim": 2091,
      "omaa": 2092,
      "##joukku": 2093,
      "Kys": 2094,
      "##yyt": 2095,
      "##ppa": 2096,
      "kai": 2097,
      "miehen": 2098,
      "minulle": 2099,
      "tarvi": 2100,
      "ruoka": 2101,
      "##ppo": 2102,
      "##eili": 2103,
      "Us": 2104,
      "Mon": 2105,
      "asioita": 2106,
      "##ill": 2107,
      "17": 2108,
      "##jär": 2109,
      "yleis": 2110,
      "##ellään": 2111,
      "piir": 2112,
      "##ine": 2113,
      "##tava": 2114,
      "eteen": 2115,
      "*": 2116,
      "Maa": 2117,
      "joissa": 2118,
      "yksity": 2119,
      "##näkö": 2120,
      "##vit": 2121,
      "paikka": 2122,
      "suurin": 2123,
      "##yksiä": 2124,
      "nainen": 2125,
      "huu": 2126,
      "ymmärr": 2127,
      "tehnyt": 2128,
      "##mper": 2129,
      "##ykset": 2130,
      "##laista": 2131,
      "keskiv": 2132,
      "##reen": 2133,
      "ehdo": 2134,
      "hu": 2135,
      "##atto": 2136,
      "olemassa": 2137,
      "##äri": 2138,
      "hyvää": 2139,
      "##alais": 2140,
      "##uksiin": 2141,
      "meni": 2142,
      "##hall": 2143,
      "vähen": 2144,
      "tietoa": 2145,
      "vaka": 2146,
      "Näin": 2147,
      "##uksissa": 2148,
      "kokona": 2149,
      "sunnunta": 2150,
      "##eeksi": 2151,
      "##alit": 2152,
      "##uksella": 2153,
      "koske": 2154,
      "tava": 2155,
      "hetkellä": 2156,
      "##ile": 2157,
      "teks": 2158,
      "tulisi": 2159,
      "lääkä": 2160,
      "heng": 2161,
      "##isilla": 2162,
      "##erin": 2163,
      "vast": 2164,
      "##jille": 2165,
      "verk": 2166,
      "##ria": 2167,
      "Nor": 2168,
      "##las": 2169,
      "##viin": 2170,
      "edus": 2171,
      "Minä": 2172,
      "löy": 2173,
      "##no": 2174,
      "Mä": 2175,
      "##tely": 2176,
      "+": 2177,
      "hallitus": 2178,
      "peli": 2179,
      "Lin": 2180,
      "toimii": 2181,
      "jäi": 2182,
      "##oika": 2183,
      "Ch": 2184,
      "100": 2185,
      "olin": 2186,
      "##yhtiö": 2187,
      "metsä": 2188,
      "torsta": 2189,
      "##eelle": 2190,
      "asun": 2191,
      "kerr": 2192,
      "Ho": 2193,
      "maahan": 2194,
      "Toi": 2195,
      "##essaan": 2196,
      "25": 2197,
      "sam": 2198,
      "=": 2199,
      "##illaan": 2200,
      "musiik": 2201,
      "##ltä": 2202,
      "##ehd": 2203,
      "##uss": 2204,
      "##eg": 2205,
      "ehdot": 2206,
      "uutta": 2207,
      "Tässä": 2208,
      "onkin": 2209,
      "energ": 2210,
      "ihmistä": 2211,
      "sair": 2212,
      "minkä": 2213,
      "##llisuuden": 2214,
      "myyn": 2215,
      "##uuksia": 2216,
      "##emen": 2217,
      "##attu": 2218,
      "huomio": 2219,
      "##istor": 2220,
      "##usla": 2221,
      "Ih": 2222,
      "enn": 2223,
      "asiaa": 2224,
      "##mieh": 2225,
      "kehittä": 2226,
      "asiasta": 2227,
      "ww": 2228,
      "toden": 2229,
      "Hä": 2230,
      "##detään": 2231,
      "uude": 2232,
      "auto": 2233,
      "jne": 2234,
      "toiminta": 2235,
      "sijaan": 2236,
      "pikku": 2237,
      "puolu": 2238,
      "www": 2239,
      "kaver": 2240,
      "##uki": 2241,
      "Kat": 2242,
      "pakko": 2243,
      "maksaa": 2244,
      "##liitt": 2245,
      "suorit": 2246,
      "lähet": 2247,
      "suoraan": 2248,
      "##ser": 2249,
      "Pe": 2250,
      "pyör": 2251,
      "##mies": 2252,
      "##itystä": 2253,
      "##llistä": 2254,
      "##ilan": 2255,
      "läpi": 2256,
      "kulttuu": 2257,
      "ulkoma": 2258,
      "##ivaa": 2259,
      "minua": 2260,
      "tänä": 2261,
      "haasta": 2262,
      "##tona": 2263,
      "klo": 2264,
      "hallituksen": 2265,
      "rahaa": 2266,
      "##laiset": 2267,
      "Her": 2268,
      "net": 2269,
      "##yyden": 2270,
      "täytyy": 2271,
      "ihmisen": 2272,
      "##hon": 2273,
      "yritys": 2274,
      "jonkin": 2275,
      "##utkim": 2276,
      "täy": 2277,
      "koulut": 2278,
      "##vana": 2279,
      "perusteella": 2280,
      "yhtään": 2281,
      "ympäristö": 2282,
      "##hden": 2283,
      "Kiin": 2284,
      "paran": 2285,
      "##omet": 2286,
      "paremmin": 2287,
      "##stö": 2288,
      "##estin": 2289,
      "##maksi": 2290,
      "löyty": 2291,
      "näitä": 2292,
      "joukko": 2293,
      "pas": 2294,
      "melko": 2295,
      "ihmisten": 2296,
      "piti": 2297,
      "yö": 2298,
      "pieni": 2299,
      "##kijö": 2300,
      "##yyd": 2301,
      "tiista": 2302,
      "Pel": 2303,
      "uusia": 2304,
      "Jumala": 2305,
      "##jalla": 2306,
      "vuoti": 2307,
      "jään": 2308,
      "järj": 2309,
      "Tamper": 2310,
      "ensin": 2311,
      "inn": 2312,
      "##sen": 2313,
      "sellainen": 2314,
      "oikeus": 2315,
      "##sani": 2316,
      "##estar": 2317,
      "##vet": 2318,
      "voima": 2319,
      "korkea": 2320,
      "##östä": 2321,
      "##kiel": 2322,
      "tarkoit": 2323,
      "##iskeli": 2324,
      "##kossa": 2325,
      "ohj": 2326,
      "lento": 2327,
      "##oima": 2328,
      "##kesk": 2329,
      "##kei": 2330,
      "kestä": 2331,
      "Ri": 2332,
      "##raa": 2333,
      "##teeksi": 2334,
      "Venäjä": 2335,
      "asiat": 2336,
      "##jalle": 2337,
      "lämp": 2338,
      "aset": 2339,
      "kesken": 2340,
      "vil": 2341,
      "##tiä": 2342,
      "##inna": 2343,
      "Poli": 2344,
      "##piir": 2345,
      "olis": 2346,
      "##uha": 2347,
      "ulos": 2348,
      "##iken": 2349,
      "##utuu": 2350,
      "riipp": 2351,
      "myöhemmin": 2352,
      "hyvän": 2353,
      "##mpia": 2354,
      "##vall": 2355,
      "##vara": 2356,
      "##isuutta": 2357,
      "presidentti": 2358,
      "##ata": 2359,
      "neljä": 2360,
      "vuotia": 2361,
      "Etel": 2362,
      "pysy": 2363,
      "eriko": 2364,
      "##tuus": 2365,
      "synty": 2366,
      "mikään": 2367,
      "Hänen": 2368,
      "##käs": 2369,
      "välttä": 2370,
      "taso": 2371,
      "##alia": 2372,
      "##ksin": 2373,
      "hir": 2374,
      "##emään": 2375,
      "##eria": 2376,
      ">": 2377,
      "##euv": 2378,
      "##kän": 2379,
      "##osin": 2380,
      "##mon": 2381,
      "##imen": 2382,
      "Ensi": 2383,
      "##ville": 2384,
      "##fi": 2385,
      "##ottelu": 2386,
      "Sin": 2387,
      "##innä": 2388,
      "##llään": 2389,
      "Miten": 2390,
      "##teesta": 2391,
      "##oksia": 2392,
      "tyttö": 2393,
      "ollaan": 2394,
      "ulkopuol": 2395,
      "paik": 2396,
      "##jek": 2397,
      "##utua": 2398,
      "##ep": 2399,
      "hava": 2400,
      "vaati": 2401,
      "kolman": 2402,
      "vaikuttaa": 2403,
      "##aika": 2404,
      "##sina": 2405,
      "put": 2406,
      "##hoit": 2407,
      "##tuvat": 2408,
      "##ydessä": 2409,
      "häntä": 2410,
      "##astaa": 2411,
      "Esim": 2412,
      "##perä": 2413,
      "pos": 2414,
      "syks": 2415,
      "##telin": 2416,
      "oikeasti": 2417,
      "##okset": 2418,
      "##issaan": 2419,
      "samaa": 2420,
      "odo": 2421,
      "Por": 2422,
      "##kaupun": 2423,
      "##paika": 2424,
      "Mikä": 2425,
      "##llon": 2426,
      "##puh": 2427,
      "mennessä": 2428,
      "talous": 2429,
      "suku": 2430,
      "yhä": 2431,
      "tärke": 2432,
      "naa": 2433,
      "siksi": 2434,
      "tilanne": 2435,
      "##ola": 2436,
      "puhu": 2437,
      "Yle": 2438,
      "tien": 2439,
      "edell": 2440,
      "##mpaa": 2441,
      "vaikea": 2442,
      "##uilla": 2443,
      "##ivi": 2444,
      "nopeasti": 2445,
      "##estään": 2446,
      "puheenjohtaja": 2447,
      "tarkas": 2448,
      "valmist": 2449,
      "Hal": 2450,
      "tee": 2451,
      "##ukkaan": 2452,
      "kaikille": 2453,
      "milj": 2454,
      "lapsen": 2455,
      "##ara": 2456,
      "Me": 2457,
      "##ältä": 2458,
      "##tiön": 2459,
      "##isellä": 2460,
      "varten": 2461,
      "##hansa": 2462,
      "vaiheessa": 2463,
      "ensimmäinen": 2464,
      "##isaalta": 2465,
      "kell": 2466,
      "menet": 2467,
      "##ettävä": 2468,
      "##ityksen": 2469,
      "##jää": 2470,
      "jum": 2471,
      "##misestä": 2472,
      "keskiviik": 2473,
      "merkittä": 2474,
      "aiheutta": 2475,
      "Etelä": 2476,
      "säil": 2477,
      "##uneet": 2478,
      "Sitten": 2479,
      "Rans": 2480,
      "enna": 2481,
      "##kassa": 2482,
      "##tur": 2483,
      "##isissa": 2484,
      "Pi": 2485,
      "Tämän": 2486,
      "liig": 2487,
      "Itä": 2488,
      "##etä": 2489,
      "##ölj": 2490,
      "##etun": 2491,
      "laat": 2492,
      "luot": 2493,
      "joista": 2494,
      "kannatta": 2495,
      "jaksa": 2496,
      "perjantaina": 2497,
      "vaku": 2498,
      "tyyty": 2499,
      "avulla": 2500,
      "Tai": 2501,
      "40": 2502,
      "Kol": 2503,
      "joilla": 2504,
      "hil": 2505,
      "Yhdysvalta": 2506,
      "tosin": 2507,
      "##aston": 2508,
      "tutki": 2509,
      "##ema": 2510,
      "sieltä": 2511,
      "inf": 2512,
      "El": 2513,
      "##iki": 2514,
      "Luo": 2515,
      "päin": 2516,
      "##iskel": 2517,
      "jatkaa": 2518,
      "##eena": 2519,
      "alussa": 2520,
      "aino": 2521,
      "Ker": 2522,
      "##ilä": 2523,
      "tan": 2524,
      "ympäri": 2525,
      "saav": 2526,
      "##tella": 2527,
      "mitta": 2528,
      "##itte": 2529,
      "keske": 2530,
      "##uteen": 2531,
      "syyt": 2532,
      "kasvat": 2533,
      "ep": 2534,
      "luku": 2535,
      "ruu": 2536,
      "##kseni": 2537,
      "##empia": 2538,
      "tietä": 2539,
      "do": 2540,
      "##tion": 2541,
      "ainakaan": 2542,
      "##siä": 2543,
      "teho": 2544,
      "monta": 2545,
      "kanna": 2546,
      "huolim": 2547,
      "##ation": 2548,
      "##alaisten": 2549,
      "tapauksessa": 2550,
      "puoli": 2551,
      "oll": 2552,
      "##kuin": 2553,
      "Osa": 2554,
      "##mus": 2555,
      "##sar": 2556,
      "tus": 2557,
      "enkä": 2558,
      "pako": 2559,
      "##alaiset": 2560,
      "##teena": 2561,
      "##ves": 2562,
      "Työ": 2563,
      "##all": 2564,
      "##sy": 2565,
      "minulla": 2566,
      "med": 2567,
      "valit": 2568,
      "##ettom": 2569,
      "##ren": 2570,
      "kusta": 2571,
      "##tola": 2572,
      "tel": 2573,
      "##met": 2574,
      "näk": 2575,
      "##otti": 2576,
      "##hi": 2577,
      "ilme": 2578,
      "suunnitel": 2579,
      "soit": 2580,
      "vaikutta": 2581,
      "##alle": 2582,
      "saata": 2583,
      "##ohjel": 2584,
      "vär": 2585,
      "äl": 2586,
      "##ejä": 2587,
      "neljän": 2588,
      "##har": 2589,
      "Mo": 2590,
      "käytänn": 2591,
      "hinta": 2592,
      "osta": 2593,
      "suos": 2594,
      "As": 2595,
      "useita": 2596,
      "Vä": 2597,
      "htt": 2598,
      "Oy": 2599,
      "##udessa": 2600,
      "##tann": 2601,
      "kuun": 2602,
      "kel": 2603,
      "Meillä": 2604,
      "puolesta": 2605,
      "huono": 2606,
      "Mat": 2607,
      "tap": 2608,
      "Miksi": 2609,
      "Ter": 2610,
      "tietysti": 2611,
      "näyttä": 2612,
      "laittaa": 2613,
      "##ittain": 2614,
      "erityisesti": 2615,
      "muutaman": 2616,
      "tait": 2617,
      "perä": 2618,
      "##ii": 2619,
      "##tern": 2620,
      "luon": 2621,
      "yhteydessä": 2622,
      "akti": 2623,
      "jälleen": 2624,
      "##lann": 2625,
      "##istaan": 2626,
      "Sal": 2627,
      "##itin": 2628,
      "##vansa": 2629,
      "Z": 2630,
      "tör": 2631,
      "tehdään": 2632,
      "##telen": 2633,
      "parempi": 2634,
      "Yhdysvaltain": 2635,
      "Raamat": 2636,
      "##emo": 2637,
      "sal": 2638,
      "asio": 2639,
      "kerro": 2640,
      "##ointi": 2641,
      "tapp": 2642,
      "##mättö": 2643,
      "viikolla": 2644,
      "aiku": 2645,
      "##yhte": 2646,
      "##eissa": 2647,
      "##vista": 2648,
      "mää": 2649,
      "huolimatta": 2650,
      "vaikut": 2651,
      "##uussa": 2652,
      "rä": 2653,
      "##koul": 2654,
      "pil": 2655,
      "##istuksen": 2656,
      "jalka": 2657,
      "kävi": 2658,
      "vaal": 2659,
      "##istön": 2660,
      "##asia": 2661,
      "rakka": 2662,
      "kaikkien": 2663,
      "ns": 2664,
      "ruot": 2665,
      "Muut": 2666,
      "tarkoitus": 2667,
      "epäil": 2668,
      "##ber": 2669,
      "##toin": 2670,
      "##gen": 2671,
      "##olle": 2672,
      "valmen": 2673,
      "##ästi": 2674,
      "usea": 2675,
      "##tunti": 2676,
      "##inaan": 2677,
      "##uma": 2678,
      "tahansa": 2679,
      "##laa": 2680,
      "jonkun": 2681,
      "##ihan": 2682,
      "##keskus": 2683,
      "##isty": 2684,
      "##äällä": 2685,
      "##vissä": 2686,
      "yhde": 2687,
      "##uudet": 2688,
      "tunne": 2689,
      "mielestäni": 2690,
      "runsa": 2691,
      "So": 2692,
      "kaikkea": 2693,
      "naisten": 2694,
      "pitkään": 2695,
      "ravin": 2696,
      "mietti": 2697,
      "helposti": 2698,
      "auton": 2699,
      "valmista": 2700,
      "##kenn": 2701,
      "Eh": 2702,
      "##vaksi": 2703,
      "##ikos": 2704,
      "##kalla": 2705,
      "ist": 2706,
      "rakenta": 2707,
      "päivänä": 2708,
      "todennäkö": 2709,
      "##utunut": 2710,
      "Joka": 2711,
      "olemme": 2712,
      "##kset": 2713,
      "vuotias": 2714,
      "##bi": 2715,
      "Kon": 2716,
      "keskusta": 2717,
      "##joiden": 2718,
      "tosiaan": 2719,
      "Tal": 2720,
      "##istin": 2721,
      "Le": 2722,
      "toki": 2723,
      "tark": 2724,
      "##intään": 2725,
      "##ora": 2726,
      "torstaina": 2727,
      "Koko": 2728,
      "löyd": 2729,
      "kauden": 2730,
      "järjestä": 2731,
      "sosiaal": 2732,
      "luu": 2733,
      "ensimmäisen": 2734,
      "##ksua": 2735,
      "##olta": 2736,
      "vide": 2737,
      "##huo": 2738,
      "##oston": 2739,
      "##laisen": 2740,
      "##tomasti": 2741,
      "opetta": 2742,
      "##iri": 2743,
      "##ymmen": 2744,
      "paras": 2745,
      "poliisi": 2746,
      "##tul": 2747,
      "##uraa": 2748,
      "haa": 2749,
      "yhtiö": 2750,
      "##vio": 2751,
      "oo": 2752,
      "henk": 2753,
      "ajo": 2754,
      "käynn": 2755,
      "omat": 2756,
      "##telemaan": 2757,
      "maanantaina": 2758,
      "##llisten": 2759,
      "kein": 2760,
      "##hing": 2761,
      "uudelleen": 2762,
      "##koja": 2763,
      "##joita": 2764,
      "##laisten": 2765,
      "Puol": 2766,
      "käyttöön": 2767,
      "pö": 2768,
      "ves": 2769,
      "musta": 2770,
      "alueella": 2771,
      "tänne": 2772,
      "Kan": 2773,
      "Siinä": 2774,
      "blog": 2775,
      "##tämään": 2776,
      "sinulle": 2777,
      "##tiet": 2778,
      "##itto": 2779,
      "##am": 2780,
      "ongelma": 2781,
      "mielen": 2782,
      "myötä": 2783,
      "kaupung": 2784,
      "Sitä": 2785,
      "Re": 2786,
      "opiskeli": 2787,
      "http": 2788,
      "##ukan": 2789,
      "hei": 2790,
      "terveys": 2791,
      "##liiton": 2792,
      "sille": 2793,
      "kuts": 2794,
      "kirjoitta": 2795,
      "taistel": 2796,
      "##itetty": 2797,
      "tas": 2798,
      "lähtö": 2799,
      "Jot": 2800,
      "keskiviikkona": 2801,
      "huipp": 2802,
      "joul": 2803,
      "##arin": 2804,
      "vähemmän": 2805,
      "alla": 2806,
      "##eminen": 2807,
      "##ustaa": 2808,
      "##sky": 2809,
      "Isra": 2810,
      "perusta": 2811,
      "luke": 2812,
      "yhteistyö": 2813,
      "##onin": 2814,
      "ry": 2815,
      "kuvaa": 2816,
      "ket": 2817,
      "julkais": 2818,
      "työttö": 2819,
      "oleva": 2820,
      "saavat": 2821,
      "meille": 2822,
      "ihmet": 2823,
      "Helsinki": 2824,
      "kokon": 2825,
      "laus": 2826,
      "pidä": 2827,
      "Et": 2828,
      "tiistaina": 2829,
      "##ttu": 2830,
      "##TT": 2831,
      "tekemään": 2832,
      "sov": 2833,
      "perhe": 2834,
      "ollen": 2835,
      "vanha": 2836,
      "riko": 2837,
      "##istan": 2838,
      "viikonl": 2839,
      "Lo": 2840,
      "sor": 2841,
      "##evat": 2842,
      "tapaa": 2843,
      "vauh": 2844,
      "kahde": 2845,
      "##ikkoja": 2846,
      "lauantaina": 2847,
      "##tor": 2848,
      "tuotta": 2849,
      "##teista": 2850,
      "##kuuta": 2851,
      "u": 2852,
      "##meen": 2853,
      "Helsing": 2854,
      "joud": 2855,
      "##kua": 2856,
      "lapset": 2857,
      "poika": 2858,
      "päivää": 2859,
      "johd": 2860,
      "##bo": 2861,
      "##lliseen": 2862,
      "auttaa": 2863,
      "kilomet": 2864,
      "##nö": 2865,
      "takana": 2866,
      "Pr": 2867,
      "##essi": 2868,
      "##enkiin": 2869,
      "nähdä": 2870,
      "##tinen": 2871,
      "loppuun": 2872,
      "##ilu": 2873,
      "tuota": 2874,
      "kymmenen": 2875,
      "ris": 2876,
      "##päivä": 2877,
      "##imm": 2878,
      "kuka": 2879,
      "##pain": 2880,
      "##yvä": 2881,
      "arvos": 2882,
      "kotiin": 2883,
      "##toim": 2884,
      "päättä": 2885,
      "Saksa": 2886,
      "kohtaa": 2887,
      "puu": 2888,
      "##ääkä": 2889,
      "saisi": 2890,
      "kokonaan": 2891,
      "pysä": 2892,
      "##oitus": 2893,
      "##istys": 2894,
      "arm": 2895,
      "##kkia": 2896,
      "käydä": 2897,
      "sata": 2898,
      "jossain": 2899,
      "sain": 2900,
      "##aton": 2901,
      "tuk": 2902,
      "##ttiin": 2903,
      "selvästi": 2904,
      "sellaista": 2905,
      "##kinen": 2906,
      "ved": 2907,
      "##ttel": 2908,
      "olemaan": 2909,
      "##eensa": 2910,
      "##uksena": 2911,
      "##dyn": 2912,
      "Ehkä": 2913,
      "saadaan": 2914,
      "alusta": 2915,
      "ran": 2916,
      "22": 2917,
      "suhteen": 2918,
      "##paikka": 2919,
      "muutta": 2920,
      "##öin": 2921,
      "##ellaan": 2922,
      "Ruotsin": 2923,
      "nimen": 2924,
      "vet": 2925,
      "##kkos": 2926,
      "##jaksi": 2927,
      "lähinnä": 2928,
      "kö": 2929,
      "ostaa": 2930,
      "pe": 2931,
      "##ry": 2932,
      "luki": 2933,
      "##esin": 2934,
      "viet": 2935,
      "kohti": 2936,
      "it": 2937,
      "Mu": 2938,
      "##SA": 2939,
      "yrittää": 2940,
      "##ens": 2941,
      "kohtaan": 2942,
      "reil": 2943,
      "riittää": 2944,
      "##hun": 2945,
      "##essään": 2946,
      "syytä": 2947,
      "##järjestö": 2948,
      "##into": 2949,
      "mas": 2950,
      "löytä": 2951,
      "kapp": 2952,
      "ydin": 2953,
      "pian": 2954,
      "##teissa": 2955,
      "##kis": 2956,
      "ainoa": 2957,
      "##jetta": 2958,
      "toimitus": 2959,
      "60": 2960,
      "##dio": 2961,
      "elin": 2962,
      "hoita": 2963,
      "pääsee": 2964,
      "suk": 2965,
      "valmi": 2966,
      "työsken": 2967,
      "Miel": 2968,
      "onne": 2969,
      "siten": 2970,
      "Aina": 2971,
      "##tio": 2972,
      "Yhdysvall": 2973,
      "##jun": 2974,
      "kiinnos": 2975,
      "järjestel": 2976,
      "seitsem": 2977,
      "##uon": 2978,
      "mene": 2979,
      "Lu": 2980,
      "Tied": 2981,
      "voitti": 2982,
      "##itään": 2983,
      "24": 2984,
      "##iaat": 2985,
      "kauan": 2986,
      "Voi": 2987,
      "suunnittel": 2988,
      "hänet": 2989,
      "Yl": 2990,
      "itsensä": 2991,
      "lopulta": 2992,
      "rakas": 2993,
      "Ed": 2994,
      "##jas": 2995,
      "21": 2996,
      "##kkeen": 2997,
      "vastusta": 2998,
      "huomatta": 2999,
      "##uttua": 3000,
      "jotenkin": 3001,
      "##oil": 3002,
      "lisään": 3003,
      "lähellä": 3004,
      "hänelle": 3005,
      "##kur": 3006,
      "Pet": 3007,
      "##oida": 3008,
      "##empää": 3009,
      "yksinkerta": 3010,
      "hin": 3011,
      "urheil": 3012,
      "]": 3013,
      "tyytyvä": 3014,
      "##det": 3015,
      "kri": 3016,
      "Tällä": 3017,
      "##lamen": 3018,
      "luvun": 3019,
      "##änsä": 3020,
      "##mana": 3021,
      "Suomeen": 3022,
      "Kansa": 3023,
      "kehitys": 3024,
      "##llisi": 3025,
      "##ottavasti": 3026,
      "##villa": 3027,
      "##IN": 3028,
      "tarkoittaa": 3029,
      "kannalta": 3030,
      "tiedot": 3031,
      "sunnuntaina": 3032,
      "##ump": 3033,
      "täyt": 3034,
      "##ga": 3035,
      "##jista": 3036,
      "Ensimmä": 3037,
      "taa": 3038,
      "naut": 3039,
      "##omaan": 3040,
      "raha": 3041,
      "viranoma": 3042,
      "[": 3043,
      "kolmen": 3044,
      "histor": 3045,
      "kans": 3046,
      "julka": 3047,
      "Tuom": 3048,
      "kaks": 3049,
      "puhel": 3050,
      "##utui": 3051,
      "puolestaan": 3052,
      "##par": 3053,
      "pes": 3054,
      "Kaup": 3055,
      "verta": 3056,
      "oon": 3057,
      "kustann": 3058,
      "Toim": 3059,
      "##kr": 3060,
      "määrit": 3061,
      "kysy": 3062,
      "mieleen": 3063,
      "ide": 3064,
      "##alis": 3065,
      "tulevat": 3066,
      "kerta": 3067,
      "mulla": 3068,
      "##sien": 3069,
      "##joja": 3070,
      "##sää": 3071,
      "miet": 3072,
      "##tetään": 3073,
      "##kansa": 3074,
      "Ba": 3075,
      "Olet": 3076,
      "tapahtuu": 3077,
      "euron": 3078,
      "korva": 3079,
      "##änsi": 3080,
      "kieltä": 3081,
      "##ättä": 3082,
      "luov": 3083,
      "##empien": 3084,
      "naisen": 3085,
      "nousi": 3086,
      "Päiv": 3087,
      "##einä": 3088,
      "Oike": 3089,
      "ymmärtää": 3090,
      "muutama": 3091,
      "##isko": 3092,
      "koira": 3093,
      "##tejä": 3094,
      "##llikkö": 3095,
      "##ts": 3096,
      "##pur": 3097,
      "hyviä": 3098,
      "##llei": 3099,
      "moni": 3100,
      "kotona": 3101,
      "##uli": 3102,
      "Saa": 3103,
      "poliitt": 3104,
      "##llo": 3105,
      "##isemmin": 3106,
      "huoma": 3107,
      "otti": 3108,
      "laj": 3109,
      "Nyky": 3110,
      "YK": 3111,
      "ongelmia": 3112,
      "toimitta": 3113,
      "liikke": 3114,
      "##ukkaa": 3115,
      "##kauden": 3116,
      "viisi": 3117,
      "##ekister": 3118,
      "työtä": 3119,
      "lähti": 3120,
      "kehitty": 3121,
      "##minister": 3122,
      "##sio": 3123,
      "poist": 3124,
      "Mies": 3125,
      "äiti": 3126,
      "apua": 3127,
      "##uminen": 3128,
      "ölj": 3129,
      "taloude": 3130,
      "##enkään": 3131,
      "##ento": 3132,
      "hake": 3133,
      "Su": 3134,
      "##liitto": 3135,
      "##uissa": 3136,
      "Op": 3137,
      "##teitä": 3138,
      "Af": 3139,
      "samaan": 3140,
      "taj": 3141,
      "etu": 3142,
      "tekn": 3143,
      "vaatii": 3144,
      "kiinnosta": 3145,
      "##telua": 3146,
      "lähtee": 3147,
      "Bri": 3148,
      "keskitty": 3149,
      "asiakka": 3150,
      "##alaisen": 3151,
      "##iska": 3152,
      "at": 3153,
      "##htaa": 3154,
      "päällä": 3155,
      "oikea": 3156,
      "tutus": 3157,
      "syys": 3158,
      "kysymys": 3159,
      "perust": 3160,
      "liikaa": 3161,
      "Las": 3162,
      "##her": 3163,
      "##län": 3164,
      "maassa": 3165,
      "alue": 3166,
      "##astus": 3167,
      "up": 3168,
      "tärkeä": 3169,
      "siltä": 3170,
      "##ussi": 3171,
      "kello": 3172,
      "huh": 3173,
      "##joitta": 3174,
      "virka": 3175,
      "##koko": 3176,
      "kauh": 3177,
      "Voit": 3178,
      "Ihan": 3179,
      "Esimerkiksi": 3180,
      "valmis": 3181,
      "asu": 3182,
      "miesten": 3183,
      "valtio": 3184,
      "##itetään": 3185,
      "lähteä": 3186,
      "sun": 3187,
      "johto": 3188,
      "pud": 3189,
      "edessä": 3190,
      "väärin": 3191,
      "##HL": 3192,
      "lyhy": 3193,
      "voinut": 3194,
      "palsta": 3195,
      "tehtävä": 3196,
      "kunta": 3197,
      "kamp": 3198,
      "kirjoittaa": 3199,
      "löytää": 3200,
      "ilmeisesti": 3201,
      "##kissa": 3202,
      "melkein": 3203,
      "##udet": 3204,
      "monet": 3205,
      "jouk": 3206,
      "autta": 3207,
      "##isyys": 3208,
      "##jalta": 3209,
      "##ase": 3210,
      "Ul": 3211,
      "amp": 3212,
      "varsinkin": 3213,
      "##ron": 3214,
      "mielenkiin": 3215,
      "##maks": 3216,
      "##paikan": 3217,
      "Hi": 3218,
      "sisällä": 3219,
      "mahdollisuus": 3220,
      "##muut": 3221,
      "##rasta": 3222,
      "&": 3223,
      "##ikymmen": 3224,
      "asiassa": 3225,
      "turha": 3226,
      "Koi": 3227,
      "hyväksy": 3228,
      "opiskel": 3229,
      "kohdalla": 3230,
      "##öitä": 3231,
      "Hall": 3232,
      "##udesta": 3233,
      "ainoastaan": 3234,
      "lapsia": 3235,
      "##liin": 3236,
      "sinua": 3237,
      "naiset": 3238,
      "joko": 3239,
      "##oilta": 3240,
      "##ire": 3241,
      "##vään": 3242,
      "##mmi": 3243,
      "##kkiä": 3244,
      "Turun": 3245,
      "##eva": 3246,
      "##ppaa": 3247,
      "perinte": 3248,
      "viiden": 3249,
      "Oli": 3250,
      "liikku": 3251,
      "hen": 3252,
      "heitä": 3253,
      "##tomia": 3254,
      "ammatti": 3255,
      "tulos": 3256,
      "Pekka": 3257,
      "Os": 3258,
      "syystä": 3259,
      "kap": 3260,
      "##utun": 3261,
      "##ihd": 3262,
      "joutuu": 3263,
      "emme": 3264,
      "täyde": 3265,
      "##jään": 3266,
      "elää": 3267,
      "##ic": 3268,
      "kertoa": 3269,
      "##utuvat": 3270,
      "omia": 3271,
      "##merikka": 3272,
      "##mästä": 3273,
      "##onsa": 3274,
      "##sut": 3275,
      "päässä": 3276,
      "pienen": 3277,
      "##suo": 3278,
      "päätös": 3279,
      "##dät": 3280,
      "vaatim": 3281,
      "normaal": 3282,
      "##peli": 3283,
      "##uto": 3284,
      "##enna": 3285,
      "totta": 3286,
      "pääss": 3287,
      "mootto": 3288,
      "##ope": 3289,
      "##utettu": 3290,
      "kyseessä": 3291,
      "verrat": 3292,
      "23": 3293,
      "sala": 3294,
      "oikeuden": 3295,
      "jokainen": 3296,
      "##roks": 3297,
      "eteenpäin": 3298,
      "sanon": 3299,
      "alkan": 3300,
      "##tävät": 3301,
      "suomen": 3302,
      "##iso": 3303,
      "asioista": 3304,
      "##mu": 3305,
      "luonnon": 3306,
      "##miel": 3307,
      "Helsingissä": 3308,
      "pääse": 3309,
      "##tell": 3310,
      "##kinta": 3311,
      "sisään": 3312,
      "kannata": 3313,
      "haus": 3314,
      "oly": 3315,
      "mit": 3316,
      "laske": 3317,
      "mall": 3318,
      "kiva": 3319,
      "##edusta": 3320,
      "Ur": 3321,
      "##malle": 3322,
      "Siis": 3323,
      "##ittiin": 3324,
      "keski": 3325,
      "Koska": 3326,
      "tarvitaan": 3327,
      "yhteensä": 3328,
      "##und": 3329,
      "ilmi": 3330,
      "Vo": 3331,
      "vastuu": 3332,
      "##toihin": 3333,
      "##emman": 3334,
      "##sas": 3335,
      "käynyt": 3336,
      "##astu": 3337,
      "##terin": 3338,
      "##imet": 3339,
      "jostain": 3340,
      "vähintään": 3341,
      "saap": 3342,
      "elämää": 3343,
      "asiantunti": 3344,
      "raa": 3345,
      "tutkimus": 3346,
      "olisivat": 3347,
      "##eessä": 3348,
      "res": 3349,
      "esittä": 3350,
      "tuotan": 3351,
      "venälä": 3352,
      "Met": 3353,
      "Tor": 3354,
      "äid": 3355,
      "##ilpail": 3356,
      "Pitä": 3357,
      "##iina": 3358,
      "tuossa": 3359,
      "jättää": 3360,
      "missään": 3361,
      "##ternet": 3362,
      "nykyään": 3363,
      "ykk": 3364,
      "mennyt": 3365,
      "For": 3366,
      "jälj": 3367,
      "##yp": 3368,
      "##jal": 3369,
      "##veri": 3370,
      "..": 3371,
      "...": 3372,
      "Kaik": 3373,
      "hallit": 3374,
      "##istit": 3375,
      "de": 3376,
      "##tali": 3377,
      "treen": 3378,
      "##emin": 3379,
      "vie": 3380,
      "kokeil": 3381,
      "puolella": 3382,
      "##eissä": 3383,
      "Kuo": 3384,
      "konser": 3385,
      "mahd": 3386,
      "takaa": 3387,
      "sta": 3388,
      "prof": 3389,
      "lup": 3390,
      "sup": 3391,
      "paitsi": 3392,
      "keskustelu": 3393,
      "sana": 3394,
      "##pah": 3395,
      "##markkin": 3396,
      "ylä": 3397,
      "tarvitta": 3398,
      "pitänyt": 3399,
      "Mer": 3400,
      "Jeesus": 3401,
      "##llisuutta": 3402,
      "##tos": 3403,
      "järjest": 3404,
      "aktiiv": 3405,
      "Ke": 3406,
      "liike": 3407,
      "Da": 3408,
      "vähä": 3409,
      "198": 3410,
      "myöskään": 3411,
      "terv": 3412,
      "##uni": 3413,
      "##läh": 3414,
      "##kunnassa": 3415,
      "odottaa": 3416,
      "##ilee": 3417,
      "##kse": 3418,
      "##ug": 3419,
      "Yksi": 3420,
      "loukkaan": 3421,
      "Elä": 3422,
      "##mppan": 3423,
      "hev": 3424,
      "kaat": 3425,
      "vuodessa": 3426,
      "##olin": 3427,
      "helppo": 3428,
      "välttämättä": 3429,
      "##ak": 3430,
      "500": 3431,
      "miehet": 3432,
      "sinulla": 3433,
      "80": 3434,
      "##yrit": 3435,
      "##innassa": 3436,
      "miljard": 3437,
      "##tol": 3438,
      "tuke": 3439,
      "viestin": 3440,
      "kasva": 3441,
      "kuukauden": 3442,
      "##innat": 3443,
      "##co": 3444,
      "vero": 3445,
      "##tän": 3446,
      "##llistu": 3447,
      "##ikseen": 3448,
      "joukkue": 3449,
      "häv": 3450,
      "Ah": 3451,
      "##je": 3452,
      "@": 3453,
      "##dotta": 3454,
      "##mäki": 3455,
      "luotta": 3456,
      "laajen": 3457,
      "##itiiv": 3458,
      "poikke": 3459,
      "vuoro": 3460,
      "tausta": 3461,
      "##iikan": 3462,
      "bi": 3463,
      "kanta": 3464,
      "##oid": 3465,
      "##ppu": 3466,
      "lle": 3467,
      "##ykseen": 3468,
      "tuul": 3469,
      "##ineen": 3470,
      "turvallisuus": 3471,
      "eilen": 3472,
      "##kaus": 3473,
      "Poliisi": 3474,
      "kysel": 3475,
      "osalta": 3476,
      "kirkko": 3477,
      "##määr": 3478,
      "##missa": 3479,
      "##teisiin": 3480,
      "tuntia": 3481,
      "itseään": 3482,
      "##kenut": 3483,
      "teo": 3484,
      "johtaja": 3485,
      "töitä": 3486,
      "aiv": 3487,
      "##ull": 3488,
      "##atin": 3489,
      "##netaan": 3490,
      "olo": 3491,
      "aloitta": 3492,
      "kuv": 3493,
      "erilaisia": 3494,
      "##istään": 3495,
      "##ival": 3496,
      "##tuneet": 3497,
      "kahd": 3498,
      "lih": 3499,
      "Sil": 3500,
      "luul": 3501,
      "##eo": 3502,
      "Matti": 3503,
      "alan": 3504,
      "aiheuttaa": 3505,
      "##usto": 3506,
      "##anga": 3507,
      "saakka": 3508,
      "##rien": 3509,
      "elämään": 3510,
      "##anne": 3511,
      "##delle": 3512,
      "jatkuu": 3513,
      "pyö": 3514,
      "suuntaan": 3515,
      "##mpa": 3516,
      "Toinen": 3517,
      "puna": 3518,
      "perheen": 3519,
      "Tiet": 3520,
      "jalkapall": 3521,
      "##itaan": 3522,
      "##jaus": 3523,
      "johtaa": 3524,
      "käytetään": 3525,
      "sol": 3526,
      "##ilman": 3527,
      "##oikeus": 3528,
      "##lleni": 3529,
      "omasta": 3530,
      "kauppa": 3531,
      "##ytti": 3532,
      "hyökkä": 3533,
      "kumm": 3534,
      "##töä": 3535,
      "selvi": 3536,
      "jänn": 3537,
      "##iaa": 3538,
      "70": 3539,
      "aloittaa": 3540,
      "##ottiin": 3541,
      "eläin": 3542,
      "viik": 3543,
      "##katu": 3544,
      "aih": 3545,
      "olisin": 3546,
      "paper": 3547,
      "omina": 3548,
      "laad": 3549,
      "##deksi": 3550,
      "kova": 3551,
      "näkyy": 3552,
      "omaan": 3553,
      "ohi": 3554,
      "Saksan": 3555,
      "##unnan": 3556,
      "tiedotus": 3557,
      "##umer": 3558,
      "##rille": 3559,
      "helpo": 3560,
      "puolustus": 3561,
      "verrattuna": 3562,
      "pot": 3563,
      "##etut": 3564,
      "ää": 3565,
      "##määrä": 3566,
      "##usin": 3567,
      "toiseen": 3568,
      "##teell": 3569,
      "Br": 3570,
      "siirty": 3571,
      "Han": 3572,
      "Silloin": 3573,
      "laki": 3574,
      "##utin": 3575,
      "##ksien": 3576,
      "muutenkin": 3577,
      "##llisimman": 3578,
      "##joa": 3579,
      "virh": 3580,
      "Un": 3581,
      "vin": 3582,
      "##ralla": 3583,
      "alas": 3584,
      "##erkki": 3585,
      "Aika": 3586,
      "milla": 3587,
      "##ova": 3588,
      "##ettyä": 3589,
      "##ge": 3590,
      "ohjaa": 3591,
      "eniten": 3592,
      "ikinä": 3593,
      "lum": 3594,
      "viikkoa": 3595,
      "tietenkin": 3596,
      "alueen": 3597,
      "##myys": 3598,
      "ymmärrä": 3599,
      "Suo": 3600,
      "kasvaa": 3601,
      "Bo": 3602,
      "Kul": 3603,
      "lämpö": 3604,
      "haluat": 3605,
      "##unsa": 3606,
      "ilmoitti": 3607,
      "näistä": 3608,
      "itsenä": 3609,
      "lukea": 3610,
      "##päätö": 3611,
      "valko": 3612,
      "ym": 3613,
      "com": 3614,
      "##tenä": 3615,
      "##yhd": 3616,
      "kunnossa": 3617,
      "ota": 3618,
      "Antti": 3619,
      "Asi": 3620,
      "##iton": 3621,
      "tilaa": 3622,
      "korke": 3623,
      "puolet": 3624,
      "käytössä": 3625,
      "lähe": 3626,
      "sotil": 3627,
      "Puh": 3628,
      "mestar": 3629,
      "palvelu": 3630,
      "tarpeeksi": 3631,
      "rea": 3632,
      "ero": 3633,
      "luk": 3634,
      "suhta": 3635,
      "tärkeää": 3636,
      "loppu": 3637,
      "kiinte": 3638,
      "Lop": 3639,
      "muistaa": 3640,
      "siiv": 3641,
      "tuu": 3642,
      "liitto": 3643,
      "Its": 3644,
      "##inan": 3645,
      "tuskin": 3646,
      "##ytty": 3647,
      "##mik": 3648,
      "parlamen": 3649,
      "juoks": 3650,
      "niihin": 3651,
      "polt": 3652,
      "##lannin": 3653,
      "luvulla": 3654,
      "tulossa": 3655,
      "##mit": 3656,
      "kone": 3657,
      "toimia": 3658,
      "Fa": 3659,
      "armei": 3660,
      "##kästään": 3661,
      "##isuuteen": 3662,
      "##sh": 3663,
      "lähtien": 3664,
      "##ytys": 3665,
      "##ssin": 3666,
      "##nan": 3667,
      "Minulla": 3668,
      "mahdollisimman": 3669,
      "lehd": 3670,
      "##ihte": 3671,
      "tyt": 3672,
      "##omi": 3673,
      "miestä": 3674,
      "Pan": 3675,
      "##dellä": 3676,
      "palkka": 3677,
      "Nämä": 3678,
      "huomioon": 3679,
      "##kau": 3680,
      "matkusta": 3681,
      "ens": 3682,
      "totesi": 3683,
      "##ini": 3684,
      "varsina": 3685,
      "auki": 3686,
      "##ynä": 3687,
      "kuoli": 3688,
      "yllättä": 3689,
      "##uttiin": 3690,
      "##utuksen": 3691,
      "nimi": 3692,
      "vaihtoeh": 3693,
      "##isiko": 3694,
      "ollenkaan": 3695,
      "Eikö": 3696,
      "voitto": 3697,
      "saatu": 3698,
      "kokoon": 3699,
      "##ellen": 3700,
      "##ean": 3701,
      "##bor": 3702,
      "Tun": 3703,
      "käyn": 3704,
      "##isistä": 3705,
      "isä": 3706,
      "##estiin": 3707,
      "huone": 3708,
      "Seuraa": 3709,
      "##50": 3710,
      "puolue": 3711,
      "##ny": 3712,
      "mitenkään": 3713,
      "ansi": 3714,
      "Eikä": 3715,
      "Paa": 3716,
      "kestää": 3717,
      "##toista": 3718,
      "##vani": 3719,
      "saatta": 3720,
      "nukku": 3721,
      "##tuo": 3722,
      "tukea": 3723,
      "asiakas": 3724,
      "##ministeriön": 3725,
      "kaudella": 3726,
      "##atu": 3727,
      "##kejä": 3728,
      "##yväsky": 3729,
      "antoi": 3730,
      "hyvät": 3731,
      "ylös": 3732,
      "ajaa": 3733,
      "##ban": 3734,
      "##estys": 3735,
      "##imme": 3736,
      "Oh": 3737,
      "Neuv": 3738,
      "noud": 3739,
      "toimintaa": 3740,
      "lämm": 3741,
      "##mansa": 3742,
      "##yksessä": 3743,
      "poik": 3744,
      "uhka": 3745,
      "mukaansa": 3746,
      "ahd": 3747,
      "Ver": 3748,
      "##kilpail": 3749,
      "asunn": 3750,
      "parin": 3751,
      "vaihtoehto": 3752,
      "kulutta": 3753,
      "hiih": 3754,
      "##tee": 3755,
      "seitsemän": 3756,
      "##kier": 3757,
      "puolusta": 3758,
      "näiden": 3759,
      "##kata": 3760,
      "##evisi": 3761,
      "köyh": 3762,
      "##mmik": 3763,
      "tarjoa": 3764,
      "minusta": 3765,
      "Ira": 3766,
      "tavar": 3767,
      "saar": 3768,
      "muuttaa": 3769,
      "synnyt": 3770,
      "##televat": 3771,
      "tall": 3772,
      "nais": 3773,
      "yön": 3774,
      "vahing": 3775,
      "##tteja": 3776,
      "asen": 3777,
      "Sel": 3778,
      "vira": 3779,
      "näkem": 3780,
      "##jäh": 3781,
      "##tys": 3782,
      "##tilan": 3783,
      "Vanh": 3784,
      "##istossa": 3785,
      "##kista": 3786,
      "##matto": 3787,
      "esit": 3788,
      "lopet": 3789,
      "maalin": 3790,
      "jokin": 3791,
      "##ynnä": 3792,
      "pääsi": 3793,
      "verkko": 3794,
      "käytännössä": 3795,
      "illa": 3796,
      "##ipal": 3797,
      "Hen": 3798,
      "##mätön": 3799,
      "kana": 3800,
      "Leh": 3801,
      "Espan": 3802,
      "##vistä": 3803,
      "##innut": 3804,
      "USA": 3805,
      "terr": 3806,
      "##etoim": 3807,
      "##intar": 3808,
      "##johtajan": 3809,
      "puhd": 3810,
      "##oitu": 3811,
      "##mmun": 3812,
      "raja": 3813,
      "kävel": 3814,
      "presidentin": 3815,
      "##kkaasti": 3816,
      "jatkuvasti": 3817,
      "Kas": 3818,
      "##oton": 3819,
      "osuus": 3820,
      "Toisaalta": 3821,
      "##tävä": 3822,
      "vuosina": 3823,
      "##vuus": 3824,
      "nuorten": 3825,
      "##olan": 3826,
      "henkilökohta": 3827,
      "yksityis": 3828,
      "90": 3829,
      "##isivät": 3830,
      "hyvinvoin": 3831,
      "esittel": 3832,
      "rajoit": 3833,
      "ottelun": 3834,
      "##keli": 3835,
      "##pö": 3836,
      "Yli": 3837,
      "##pitä": 3838,
      "osan": 3839,
      "##pr": 3840,
      "etsi": 3841,
      "##of": 3842,
      "New": 3843,
      "vuodesta": 3844,
      "milloin": 3845,
      "##tissa": 3846,
      "kunnes": 3847,
      "tulev": 3848,
      "noita": 3849,
      "Siitä": 3850,
      "##utaan": 3851,
      "viesti": 3852,
      "##arit": 3853,
      "hoitaa": 3854,
      "##ihän": 3855,
      "jäänyt": 3856,
      "tunnin": 3857,
      "Tän": 3858,
      "muualla": 3859,
      "Ruots": 3860,
      "toteaa": 3861,
      "##itoksen": 3862,
      "sijaitse": 3863,
      "paris": 3864,
      "loma": 3865,
      "##ikot": 3866,
      "jaks": 3867,
      "##ilen": 3868,
      "X": 3869,
      "ton": 3870,
      "Hyvä": 3871,
      "##berg": 3872,
      "haas": 3873,
      "##itän": 3874,
      "osoitta": 3875,
      "periaat": 3876,
      "##yttävä": 3877,
      "##yste": 3878,
      "##ilin": 3879,
      "##jiä": 3880,
      "häir": 3881,
      "##innasta": 3882,
      "kantaa": 3883,
      "harv": 3884,
      "molemmat": 3885,
      "tuntu": 3886,
      "viis": 3887,
      "_": 3888,
      "tietokon": 3889,
      "alkoh": 3890,
      "heille": 3891,
      "##ikkaan": 3892,
      "##neuv": 3893,
      "näkee": 3894,
      "kotima": 3895,
      "mielipit": 3896,
      "krit": 3897,
      "pelkästään": 3898,
      "##kojen": 3899,
      "##nes": 3900,
      "##tani": 3901,
      "joulu": 3902,
      "kaupunki": 3903,
      "ilo": 3904,
      "pelin": 3905,
      "##telun": 3906,
      "herät": 3907,
      "##ija": 3908,
      "pir": 3909,
      "##oili": 3910,
      "Jyväsky": 3911,
      "Eng": 3912,
      "teidän": 3913,
      "pidetään": 3914,
      "huomattavasti": 3915,
      "##unnitel": 3916,
      "alkuperä": 3917,
      "hänellä": 3918,
      "##oivat": 3919,
      "Kann": 3920,
      "sota": 3921,
      "##illään": 3922,
      "projek": 3923,
      "Jeesuksen": 3924,
      "etenkin": 3925,
      "##kkään": 3926,
      "##put": 3927,
      "kunnan": 3928,
      "kirjan": 3929,
      "käsittel": 3930,
      "##edot": 3931,
      "##mmo": 3932,
      "##muka": 3933,
      "##isillä": 3934,
      "Tr": 3935,
      "Bar": 3936,
      "monen": 3937,
      "liha": 3938,
      "##saa": 3939,
      "poliisin": 3940,
      "toivo": 3941,
      "kuljetta": 3942,
      "samoin": 3943,
      "##välin": 3944,
      "##pahtu": 3945,
      "Vuonna": 3946,
      "Tosin": 3947,
      "##ukut": 3948,
      "##gr": 3949,
      "##kala": 3950,
      "##vänsä": 3951,
      "sähköp": 3952,
      "odotta": 3953,
      "kunto": 3954,
      "##uksien": 3955,
      "päättää": 3956,
      "##imin": 3957,
      "##riin": 3958,
      "itselleen": 3959,
      "##unnut": 3960,
      "lopussa": 3961,
      "yhdist": 3962,
      "vaara": 3963,
      "nosta": 3964,
      "mah": 3965,
      "##tista": 3966,
      "##yll": 3967,
      "Pro": 3968,
      "sp": 3969,
      "osallistu": 3970,
      "##killä": 3971,
      "yms": 3972,
      "tuki": 3973,
      "Liik": 3974,
      "SM": 3975,
      "##päällikkö": 3976,
      "yhtiön": 3977,
      "ystävä": 3978,
      "Car": 3979,
      "vall": 3980,
      "##elma": 3981,
      "lista": 3982,
      "oir": 3983,
      "terveyden": 3984,
      "etten": 3985,
      "dolla": 3986,
      "Syy": 3987,
      "##asiassa": 3988,
      "##intaa": 3989,
      "##ov": 3990,
      "lien": 3991,
      "##bin": 3992,
      "naur": 3993,
      "ikään": 3994,
      "##tuja": 3995,
      "positiiv": 3996,
      "##ksia": 3997,
      "sarja": 3998,
      "Tästä": 3999,
      "##iver": 4000,
      "vaikkapa": 4001,
      "kunni": 4002,
      "Toiv": 4003,
      "##misessa": 4004,
      "nopea": 4005,
      "avoim": 4006,
      "##miset": 4007,
      "##uste": 4008,
      "yhteyttä": 4009,
      "##annetta": 4010,
      "selke": 4011,
      "Men": 4012,
      "##oittaa": 4013,
      "tv": 4014,
      "leikka": 4015,
      "ketään": 4016,
      "ssa": 4017,
      "uskoo": 4018,
      "kunnolla": 4019,
      "Yhte": 4020,
      "##keskuksen": 4021,
      "lasta": 4022,
      "Tampereen": 4023,
      "ah": 4024,
      "keskim": 4025,
      "jatkossa": 4026,
      "asiaan": 4027,
      "##mist": 4028,
      "##udun": 4029,
      "Pit": 4030,
      "tekevät": 4031,
      "##iet": 4032,
      "##ära": 4033,
      "##uku": 4034,
      "päätöksen": 4035,
      "Siksi": 4036,
      "##hön": 4037,
      "sekin": 4038,
      "rauha": 4039,
      "todennäköisesti": 4040,
      "300": 4041,
      "toiminnan": 4042,
      "voita": 4043,
      "eikö": 4044,
      "toisella": 4045,
      "asenn": 4046,
      "vuoteen": 4047,
      "esittää": 4048,
      "puhua": 4049,
      "kokonais": 4050,
      "paha": 4051,
      "##yydestä": 4052,
      "kuvan": 4053,
      "nime": 4054,
      "##mpär": 4055,
      "entistä": 4056,
      "koulutus": 4057,
      "pääministeri": 4058,
      "yksilö": 4059,
      "millään": 4060,
      "##ettavasti": 4061,
      "talon": 4062,
      "##ettuja": 4063,
      "##kijä": 4064,
      "##urs": 4065,
      "talv": 4066,
      "Hämeen": 4067,
      "##pua": 4068,
      "väkiv": 4069,
      "syr": 4070,
      "##ekko": 4071,
      "isän": 4072,
      "jatka": 4073,
      "Johan": 4074,
      "esiinty": 4075,
      "##tie": 4076,
      "##emokra": 4077,
      "rekister": 4078,
      "##liig": 4079,
      "##imaa": 4080,
      "Pyh": 4081,
      "pääkaupun": 4082,
      "sydä": 4083,
      "ykkös": 4084,
      "nähnyt": 4085,
      "kahdeksan": 4086,
      "##puolella": 4087,
      "minuuttia": 4088,
      "rapor": 4089,
      "##valmen": 4090,
      "touko": 4091,
      "id": 4092,
      "meitä": 4093,
      "##sion": 4094,
      "minut": 4095,
      "##umin": 4096,
      "kerä": 4097,
      "2000": 4098,
      "##tte": 4099,
      "sarjan": 4100,
      "tehtiin": 4101,
      "##iksen": 4102,
      "##joista": 4103,
      "aamulla": 4104,
      "##kijät": 4105,
      "kam": 4106,
      "mielessä": 4107,
      "##ksuaal": 4108,
      "markkaa": 4109,
      "Mulla": 4110,
      "Ga": 4111,
      "Juh": 4112,
      "heinä": 4113,
      "tuosta": 4114,
      "toisin": 4115,
      "Jää": 4116,
      "##emon": 4117,
      "##umista": 4118,
      "yliopiston": 4119,
      "##ikir": 4120,
      "pika": 4121,
      "luom": 4122,
      "voitta": 4123,
      "maiden": 4124,
      "alkaen": 4125,
      "tietty": 4126,
      "26": 4127,
      "haluavat": 4128,
      "##keh": 4129,
      "harras": 4130,
      "sellaisia": 4131,
      "##kinä": 4132,
      "itsekin": 4133,
      "pen": 4134,
      "197": 4135,
      "koiran": 4136,
      "kappal": 4137,
      "työpa": 4138,
      "##ca": 4139,
      "automa": 4140,
      "äänestä": 4141,
      "todellakaan": 4142,
      "##ivä": 4143,
      "Pir": 4144,
      "Pien": 4145,
      "tarjoaa": 4146,
      "##yksi": 4147,
      "##ose": 4148,
      "kunnon": 4149,
      "##EL": 4150,
      "käv": 4151,
      "##eellinen": 4152,
      "luonno": 4153,
      "työnanta": 4154,
      "28": 4155,
      "Keski": 4156,
      "Ukra": 4157,
      "Mika": 4158,
      "Ve": 4159,
      "psy": 4160,
      "pyh": 4161,
      "##vänä": 4162,
      "##kirja": 4163,
      "ensimmäistä": 4164,
      "ranga": 4165,
      "roh": 4166,
      "loka": 4167,
      "##utusta": 4168,
      "onneksi": 4169,
      "toimitusjohtaja": 4170,
      "##uvan": 4171,
      "pih": 4172,
      "oikeastaan": 4173,
      "laaj": 4174,
      "mulle": 4175,
      "palaa": 4176,
      "hoid": 4177,
      "##urinko": 4178,
      "eroa": 4179,
      "fina": 4180,
      "työntekijö": 4181,
      "Samalla": 4182,
      "suomalainen": 4183,
      "päähän": 4184,
      "kommentoi": 4185,
      "Haa": 4186,
      "kieli": 4187,
      "Keskus": 4188,
      "##inut": 4189,
      "mikäli": 4190,
      "kalli": 4191,
      "##tus": 4192,
      "väit": 4193,
      "äly": 4194,
      "kuljet": 4195,
      "##tiiv": 4196,
      "aikaisemmin": 4197,
      "EM": 4198,
      "Kuopi": 4199,
      "tupa": 4200,
      "päätti": 4201,
      "Kär": 4202,
      "##gi": 4203,
      "27": 4204,
      "vetä": 4205,
      "avaus": 4206,
      "varma": 4207,
      "##llöin": 4208,
      "hö": 4209,
      "vaim": 4210,
      "ilmoitta": 4211,
      "anteeksi": 4212,
      "vuosia": 4213,
      "amerikka": 4214,
      "ellei": 4215,
      "jotkut": 4216,
      "##tori": 4217,
      "##mille": 4218,
      "säännö": 4219,
      "##ous": 4220,
      "amm": 4221,
      "##vallan": 4222,
      "Toki": 4223,
      "rikos": 4224,
      "uskoa": 4225,
      "suunnit": 4226,
      "Vai": 4227,
      "ssä": 4228,
      "##lon": 4229,
      "pakka": 4230,
      "esille": 4231,
      "kuvat": 4232,
      "är": 4233,
      "lupa": 4234,
      "vallan": 4235,
      "##ytynyt": 4236,
      "Ilm": 4237,
      "Co": 4238,
      "saaneet": 4239,
      "usei": 4240,
      "tiedän": 4241,
      "kuusi": 4242,
      "olevansa": 4243,
      "tuloks": 4244,
      "pat": 4245,
      "aa": 4246,
      "##ilön": 4247,
      "tilanteessa": 4248,
      "##teri": 4249,
      "##ttää": 4250,
      "yhdeks": 4251,
      "neuvottelu": 4252,
      "vei": 4253,
      "liittyy": 4254,
      "ex": 4255,
      "Kuu": 4256,
      "monia": 4257,
      "kannat": 4258,
      "tekni": 4259,
      "turna": 4260,
      "##kuva": 4261,
      "muille": 4262,
      "nor": 4263,
      "nimenomaan": 4264,
      "avio": 4265,
      "##edel": 4266,
      "Olin": 4267,
      "valita": 4268,
      "mö": 4269,
      "suor": 4270,
      "##tuksia": 4271,
      "##istusta": 4272,
      "##aseen": 4273,
      "nostaa": 4274,
      "tammik": 4275,
      "artik": 4276,
      "tuomio": 4277,
      "tyytyväinen": 4278,
      "bud": 4279,
      "##ostu": 4280,
      "##kirjoit": 4281,
      "sivu": 4282,
      "lähi": 4283,
      "##gn": 4284,
      "##hol": 4285,
      "reh": 4286,
      "millä": 4287,
      "Kal": 4288,
      "jääki": 4289,
      "täyttä": 4290,
      "paikalla": 4291,
      "lyö": 4292,
      "tiedon": 4293,
      "jaka": 4294,
      "Man": 4295,
      "eng": 4296,
      "onnettom": 4297,
      "täh": 4298,
      "kiusa": 4299,
      "järke": 4300,
      "##kaista": 4301,
      "##kunna": 4302,
      "##annan": 4303,
      "marras": 4304,
      "sito": 4305,
      "joutui": 4306,
      "Tutkim": 4307,
      "niissä": 4308,
      "selvä": 4309,
      "määrää": 4310,
      "hyödyn": 4311,
      "tull": 4312,
      "vettä": 4313,
      "##omat": 4314,
      "kuvia": 4315,
      "päässyt": 4316,
      "netti": 4317,
      "nimittäin": 4318,
      "##luo": 4319,
      "oik": 4320,
      "ryhmä": 4321,
      "metrin": 4322,
      "Sam": 4323,
      "Mieh": 4324,
      "##llisiä": 4325,
      "kaiv": 4326,
      "##tukset": 4327,
      "Tänään": 4328,
      "##hat": 4329,
      "##asen": 4330,
      "##iselta": 4331,
      "mukaisesti": 4332,
      "suj": 4333,
      "##estäni": 4334,
      "##terve": 4335,
      "iltana": 4336,
      "tavoin": 4337,
      "myr": 4338,
      "Israelin": 4339,
      "vaale": 4340,
      "##päivän": 4341,
      "Til": 4342,
      "##pen": 4343,
      "viest": 4344,
      "katsoa": 4345,
      "laul": 4346,
      "Japan": 4347,
      "pystyy": 4348,
      "##vaik": 4349,
      "kansanedusta": 4350,
      "##eb": 4351,
      "huomaa": 4352,
      "unoh": 4353,
      "täynnä": 4354,
      "testa": 4355,
      "tarj": 4356,
      "##for": 4357,
      "Kut": 4358,
      "välit": 4359,
      "##utuminen": 4360,
      "omalla": 4361,
      "##palvelu": 4362,
      "Tans": 4363,
      "##ivuo": 4364,
      "##liik": 4365,
      "mein": 4366,
      "pidät": 4367,
      "jotakin": 4368,
      "kus": 4369,
      "##innon": 4370,
      "##od": 4371,
      "##alaa": 4372,
      "vastu": 4373,
      "##estari": 4374,
      "##alaista": 4375,
      "##inka": 4376,
      "ruokaa": 4377,
      "##kelä": 4378,
      "##ppoa": 4379,
      "Ennen": 4380,
      "nousee": 4381,
      "Joh": 4382,
      "##osuh": 4383,
      "##joukkue": 4384,
      "##omista": 4385,
      "##talous": 4386,
      "ennakko": 4387,
      "Ca": 4388,
      "Vain": 4389,
      "kirkon": 4390,
      "Siellä": 4391,
      "Mikko": 4392,
      "riitä": 4393,
      "toimeen": 4394,
      "naisia": 4395,
      "##ehdo": 4396,
      "Onneksi": 4397,
      "tein": 4398,
      "väs": 4399,
      "kovasti": 4400,
      "35": 4401,
      "homma": 4402,
      "The": 4403,
      "anna": 4404,
      "##kinto": 4405,
      "Nat": 4406,
      "osin": 4407,
      "##emmistö": 4408,
      "##önen": 4409,
      "sopimuksen": 4410,
      "tasolla": 4411,
      "STT": 4412,
      "Ai": 4413,
      "##hä": 4414,
      "otetaan": 4415,
      "Ale": 4416,
      "eihän": 4417,
      "##ekon": 4418,
      "##istori": 4419,
      "mihinkään": 4420,
      "##tivat": 4421,
      "##äjä": 4422,
      "lai": 4423,
      "##utul": 4424,
      "torj": 4425,
      "loista": 4426,
      "##ED": 4427,
      "lask": 4428,
      "mahdollisesti": 4429,
      "selvää": 4430,
      "##attia": 4431,
      "Jar": 4432,
      "Ranskan": 4433,
      "oppila": 4434,
      "##tansa": 4435,
      "##teko": 4436,
      "Uuden": 4437,
      "töissä": 4438,
      "televisi": 4439,
      "menesty": 4440,
      "Itali": 4441,
      "##sto": 4442,
      "##juh": 4443,
      "kevään": 4444,
      "##oksi": 4445,
      "##arvo": 4446,
      "##käyttö": 4447,
      "##omaa": 4448,
      "kad": 4449,
      "kuor": 4450,
      "##yksestä": 4451,
      "mukava": 4452,
      "Ven": 4453,
      "hyl": 4454,
      "##öö": 4455,
      "##ilainen": 4456,
      "kaupan": 4457,
      "##uksell": 4458,
      "liiken": 4459,
      "##umi": 4460,
      "loh": 4461,
      "##pyör": 4462,
      "tapahtunut": 4463,
      "ääri": 4464,
      "Nuor": 4465,
      "seka": 4466,
      "Pari": 4467,
      "asukka": 4468,
      "istu": 4469,
      "##jojen": 4470,
      "Sillä": 4471,
      "##poh": 4472,
      "##ukselle": 4473,
      "tää": 4474,
      "##lliseksi": 4475,
      "niille": 4476,
      "etelä": 4477,
      "##kuja": 4478,
      "ette": 4479,
      "##ettel": 4480,
      "Juha": 4481,
      "##imäärä": 4482,
      "puolen": 4483,
      "of": 4484,
      "NHL": 4485,
      "uudet": 4486,
      "##ministeriö": 4487,
      "hur": 4488,
      "##ipuol": 4489,
      "##milla": 4490,
      "##ongel": 4491,
      "liikenne": 4492,
      "kolmas": 4493,
      "illalla": 4494,
      "##ima": 4495,
      "ajatus": 4496,
      "##rö": 4497,
      "Britann": 4498,
      "materia": 4499,
      "tarvits": 4500,
      "maailmassa": 4501,
      "viin": 4502,
      "##uen": 4503,
      "vuor": 4504,
      "viih": 4505,
      "toisaalta": 4506,
      "Kre": 4507,
      "Ajat": 4508,
      "##valle": 4509,
      "helmik": 4510,
      "##mö": 4511,
      "taitaa": 4512,
      "Uusi": 4513,
      "sairas": 4514,
      "##kys": 4515,
      "##vas": 4516,
      "##uti": 4517,
      "vat": 4518,
      "##emat": 4519,
      "##taso": 4520,
      "##muo": 4521,
      "##upin": 4522,
      "Vasta": 4523,
      "onnistu": 4524,
      "##oog": 4525,
      "prosentin": 4526,
      "hypp": 4527,
      "hilja": 4528,
      "aikoo": 4529,
      "rakennus": 4530,
      "huomi": 4531,
      "##alaisia": 4532,
      "##yötä": 4533,
      "parasta": 4534,
      "Q": 4535,
      "itä": 4536,
      "hah": 4537,
      "äär": 4538,
      "##kalta": 4539,
      "##istoim": 4540,
      "saksa": 4541,
      "olevat": 4542,
      "Mus": 4543,
      "sopimus": 4544,
      "suomalais": 4545,
      "tarke": 4546,
      "irti": 4547,
      "##vil": 4548,
      "korja": 4549,
      "Yrit": 4550,
      "koke": 4551,
      "näke": 4552,
      "kuulem": 4553,
      "aine": 4554,
      "vied": 4555,
      "harrasta": 4556,
      "man": 4557,
      "älä": 4558,
      "Fin": 4559,
      "kilpailu": 4560,
      "vuosien": 4561,
      "##ysten": 4562,
      "##inti": 4563,
      "##ukon": 4564,
      "paranta": 4565,
      "##anen": 4566,
      "##lim": 4567,
      "##tat": 4568,
      "##istetaan": 4569,
      "##uttava": 4570,
      "##uton": 4571,
      "Asia": 4572,
      "heh": 4573,
      "##töjä": 4574,
      "##voima": 4575,
      "##eiltä": 4576,
      "##ittämään": 4577,
      "pistettä": 4578,
      "rikko": 4579,
      "##eeni": 4580,
      "##iku": 4581,
      "##emaa": 4582,
      "##umisen": 4583,
      "##ukana": 4584,
      "miljoonan": 4585,
      "hetken": 4586,
      "Tätä": 4587,
      "nuori": 4588,
      "##pas": 4589,
      "hiukan": 4590,
      "ottelu": 4591,
      "2012": 4592,
      "vesi": 4593,
      "Olemme": 4594,
      "kalta": 4595,
      "##kille": 4596,
      "##uttamaan": 4597,
      "ros": 4598,
      "##IS": 4599,
      "Vielä": 4600,
      "Maan": 4601,
      "Vuoden": 4602,
      "##heili": 4603,
      "##essori": 4604,
      "##mas": 4605,
      "lopu": 4606,
      "risti": 4607,
      "toiminut": 4608,
      "##keitä": 4609,
      "Oulun": 4610,
      "##intaan": 4611,
      "Jul": 4612,
      "vuosikymmen": 4613,
      "tarvitsee": 4614,
      "##PS": 4615,
      "Kaupun": 4616,
      "Ber": 4617,
      "huum": 4618,
      "sopii": 4619,
      "kaikista": 4620,
      "##hei": 4621,
      "joukkueen": 4622,
      "viikonlop": 4623,
      "lopetta": 4624,
      "Toivottavasti": 4625,
      "##tinyt": 4626,
      "lähd": 4627,
      "saivat": 4628,
      "##vyys": 4629,
      "huhtik": 4630,
      "Sch": 4631,
      "##äärin": 4632,
      "lainkaan": 4633,
      "jätti": 4634,
      "##isteli": 4635,
      "haastattel": 4636,
      "Ulko": 4637,
      "saatiin": 4638,
      "ohjelma": 4639,
      "merkitystä": 4640,
      "niinkuin": 4641,
      "##utetaan": 4642,
      "näkökul": 4643,
      "suomalaiset": 4644,
      "##muutta": 4645,
      "##umatta": 4646,
      "alkanut": 4647,
      "##kinnon": 4648,
      "muutos": 4649,
      "varaa": 4650,
      "tms": 4651,
      "Jal": 4652,
      "ansa": 4653,
      "nar": 4654,
      "##sel": 4655,
      "johtuu": 4656,
      "herk": 4657,
      "vien": 4658,
      "neuvottel": 4659,
      "##eellä": 4660,
      "käsi": 4661,
      "lisäänty": 4662,
      "kasvan": 4663,
      "Timo": 4664,
      "tuohon": 4665,
      "##uttanut": 4666,
      "2010": 4667,
      "veden": 4668,
      "etukä": 4669,
      "teille": 4670,
      "pään": 4671,
      "##mästi": 4672,
      "myynti": 4673,
      "lähettä": 4674,
      "##land": 4675,
      "kyken": 4676,
      "valvon": 4677,
      "maalis": 4678,
      "syntynyt": 4679,
      "tehd": 4680,
      "niillä": 4681,
      "##osoit": 4682,
      "muistuttaa": 4683,
      "##ittänyt": 4684,
      "Ann": 4685,
      "##suojel": 4686,
      "käytetty": 4687,
      "arvon": 4688,
      "tietoja": 4689,
      "vaikeaa": 4690,
      "tekemistä": 4691,
      "##yjä": 4692,
      "fyys": 4693,
      "##ong": 4694,
      "toisten": 4695,
      "riv": 4696,
      "##teihin": 4697,
      "terror": 4698,
      "hoito": 4699,
      "##kymmen": 4700,
      "huomiota": 4701,
      "##jö": 4702,
      "lähten": 4703,
      "2014": 4704,
      "##imä": 4705,
      "ottelussa": 4706,
      "ikkun": 4707,
      "pros": 4708,
      "##zz": 4709,
      "hym": 4710,
      "##eistä": 4711,
      "elämässä": 4712,
      "##essani": 4713,
      "##tamaan": 4714,
      "tapahtui": 4715,
      "hirve": 4716,
      "##uvaa": 4717,
      "##uurin": 4718,
      "miljardia": 4719,
      "hedel": 4720,
      "##rateg": 4721,
      "erin": 4722,
      "organ": 4723,
      "##kii": 4724,
      "kiitos": 4725,
      "kiih": 4726,
      "lan": 4727,
      "##ellut": 4728,
      "suunta": 4729,
      "##ettuna": 4730,
      "kunhan": 4731,
      "itsestään": 4732,
      "ruotsa": 4733,
      "##olo": 4734,
      "Yr": 4735,
      "##llisesta": 4736,
      "##illeen": 4737,
      "##tilaisuus": 4738,
      "45": 4739,
      "osto": 4740,
      "kokoom": 4741,
      "toisia": 4742,
      "yksittä": 4743,
      "kaikilla": 4744,
      "inves": 4745,
      "Or": 4746,
      "minkään": 4747,
      "##kkeet": 4748,
      "toistaiseksi": 4749,
      "tuotanto": 4750,
      "##opimuksen": 4751,
      "ohja": 4752,
      "todist": 4753,
      "suuren": 4754,
      "vaikutus": 4755,
      "edellä": 4756,
      "liikenn": 4757,
      "haluan": 4758,
      "##seja": 4759,
      "##hoita": 4760,
      "karsin": 4761,
      "##säädän": 4762,
      "##maton": 4763,
      "räjäh": 4764,
      "2013": 4765,
      "vaihtaa": 4766,
      "varmista": 4767,
      "näytti": 4768,
      "eivätkä": 4769,
      "##impia": 4770,
      "##bb": 4771,
      "haittaa": 4772,
      "Pohjan": 4773,
      "joukossa": 4774,
      "##kkien": 4775,
      "ratkaisu": 4776,
      "Rä": 4777,
      "ominais": 4778,
      "juuta": 4779,
      "eduskunta": 4780,
      "avaa": 4781,
      "##krat": 4782,
      "internet": 4783,
      "suuria": 4784,
      "tahto": 4785,
      "suomalaisten": 4786,
      "keksi": 4787,
      "##itiikan": 4788,
      "##alti": 4789,
      "etukäteen": 4790,
      "jolle": 4791,
      "läs": 4792,
      "##vaihto": 4793,
      "Lapp": 4794,
      "koulun": 4795,
      "2011": 4796,
      "##kkit": 4797,
      "##ette": 4798,
      "sydän": 4799,
      "Kiitos": 4800,
      "samassa": 4801,
      "Eihän": 4802,
      "sän": 4803,
      "##llisena": 4804,
      "Älä": 4805,
      "##lääkä": 4806,
      "säästö": 4807,
      "toimit": 4808,
      "##rä": 4809,
      "##pl": 4810,
      "##rik": 4811,
      "Suur": 4812,
      "kuukautta": 4813,
      "yliv": 4814,
      "suojel": 4815,
      "pohjois": 4816,
      "pl": 4817,
      "Karj": 4818,
      "##usko": 4819,
      "osoittaa": 4820,
      "Kot": 4821,
      "mistään": 4822,
      "##maiden": 4823,
      "##eti": 4824,
      "##umma": 4825,
      "Huom": 4826,
      "##boo": 4827,
      "##ettaisiin": 4828,
      "##pään": 4829,
      "antanut": 4830,
      "Meidän": 4831,
      "rahoit": 4832,
      "löytyi": 4833,
      "x": 4834,
      "Koiv": 4835,
      "eten": 4836,
      "Sar": 4837,
      "kuuluvat": 4838,
      "##llani": 4839,
      "##sal": 4840,
      "suhteessa": 4841,
      "kaupp": 4842,
      "pärj": 4843,
      "perustuu": 4844,
      "##ilun": 4845,
      "tavoitteena": 4846,
      "##uudella": 4847,
      "##dissa": 4848,
      "lauanta": 4849,
      "hieno": 4850,
      "sisältää": 4851,
      "väes": 4852,
      "vuokra": 4853,
      "lupaa": 4854,
      "olette": 4855,
      "miettiä": 4856,
      "ammattila": 4857,
      "ajatella": 4858,
      "kohtuu": 4859,
      "##jänä": 4860,
      "hankki": 4861,
      "##istuu": 4862,
      "ehti": 4863,
      "töihin": 4864,
      "##ätys": 4865,
      "Saar": 4866,
      "hyväksi": 4867,
      "kyt": 4868,
      "tahd": 4869,
      "##käyn": 4870,
      "##uone": 4871,
      "kesän": 4872,
      "##ikkojen": 4873,
      "##peä": 4874,
      "juhla": 4875,
      "##ele": 4876,
      "Tähän": 4877,
      "sovel": 4878,
      "piste": 4879,
      "##ois": 4880,
      "Ir": 4881,
      "Joskus": 4882,
      "ottanut": 4883,
      "poista": 4884,
      "alun": 4885,
      "päivässä": 4886,
      "pyst": 4887,
      "energia": 4888,
      "29": 4889,
      "##kasti": 4890,
      "##urg": 4891,
      "##mattom": 4892,
      "##paino": 4893,
      "viikonlopp": 4894,
      "ilmen": 4895,
      "##pun": 4896,
      "järjestö": 4897,
      "##alassa": 4898,
      "uudestaan": 4899,
      "isla": 4900,
      "viikossa": 4901,
      "vit": 4902,
      "##yönte": 4903,
      "##uksensa": 4904,
      "naapur": 4905,
      "homm": 4906,
      "##hy": 4907,
      "halunnut": 4908,
      "##ilma": 4909,
      "Win": 4910,
      "väk": 4911,
      "##kosta": 4912,
      "Jär": 4913,
      "kärsi": 4914,
      "paikan": 4915,
      "paikalle": 4916,
      "euroop": 4917,
      "##joukkueen": 4918,
      "##udu": 4919,
      "omassa": 4920,
      "opetus": 4921,
      "Mol": 4922,
      "2015": 4923,
      "piil": 4924,
      "kauni": 4925,
      "ihana": 4926,
      "toimen": 4927,
      "heillä": 4928,
      "Hann": 4929,
      "##oor": 4930,
      "sellaisen": 4931,
      "##politi": 4932,
      "##saar": 4933,
      "anal": 4934,
      "maata": 4935,
      "kaip": 4936,
      "mielenkiinto": 4937,
      "jatko": 4938,
      "##vaat": 4939,
      "##atter": 4940,
      "##line": 4941,
      "Sip": 4942,
      "##ivu": 4943,
      "##yksiin": 4944,
      "vetää": 4945,
      "##ismi": 4946,
      "kerrotaan": 4947,
      "##mäen": 4948,
      "##tanen": 4949,
      "##attiin": 4950,
      "Ainakin": 4951,
      "joihin": 4952,
      "st": 4953,
      "##tapa": 4954,
      "##yyteen": 4955,
      "kutsu": 4956,
      "komp": 4957,
      "##teh": 4958,
      "pitkän": 4959,
      "pieniä": 4960,
      "voimaan": 4961,
      "##uran": 4962,
      "##kön": 4963,
      "sattuu": 4964,
      "länsi": 4965,
      "##sivät": 4966,
      "erinoma": 4967,
      "sisäll": 4968,
      "Täällä": 4969,
      "Mik": 4970,
      "muihin": 4971,
      "selvittää": 4972,
      "sein": 4973,
      "kuulla": 4974,
      "maat": 4975,
      "##täminen": 4976,
      "siirr": 4977,
      "##detta": 4978,
      "kaveri": 4979,
      "##perin": 4980,
      "##tisan": 4981,
      "vauva": 4982,
      "menossa": 4983,
      "kuollut": 4984,
      "komis": 4985,
      "##ulan": 4986,
      "##aari": 4987,
      "väliin": 4988,
      "##uis": 4989,
      "kesällä": 4990,
      "Lon": 4991,
      "yhteisö": 4992,
      "ihme": 4993,
      "##puoli": 4994,
      "##pelaa": 4995,
      "Joten": 4996,
      "196": 4997,
      "hid": 4998,
      "yritysten": 4999,
      "kilometrin": 5000,
      "##kila": 5001,
      "siel": 5002,
      "tarin": 5003,
      "##bl": 5004,
      "numer": 5005,
      "hallinto": 5006,
      "##DP": 5007,
      "pysyy": 5008,
      "Vih": 5009,
      "haluaisi": 5010,
      "lienee": 5011,
      "tärkein": 5012,
      "mahta": 5013,
      "##yössä": 5014,
      "##kkiin": 5015,
      "kokemusta": 5016,
      "seksuaal": 5017,
      "tarkoituksen": 5018,
      "johonkin": 5019,
      "teksti": 5020,
      "Maailman": 5021,
      "kulu": 5022,
      "##elläni": 5023,
      "pohja": 5024,
      "##psi": 5025,
      "Kari": 5026,
      "##tavat": 5027,
      "##tilla": 5028,
      "linja": 5029,
      "Kuinka": 5030,
      "pun": 5031,
      "##ennus": 5032,
      "##umat": 5033,
      "##eesta": 5034,
      "400": 5035,
      "voida": 5036,
      "perään": 5037,
      "Kuten": 5038,
      "jäädä": 5039,
      "pitäis": 5040,
      "jun": 5041,
      "järjestää": 5042,
      "Teh": 5043,
      "##pid": 5044,
      "Suomesta": 5045,
      "kaikkiaan": 5046,
      "##wa": 5047,
      "nelj": 5048,
      "toimivat": 5049,
      "Hei": 5050,
      "fil": 5051,
      "historia": 5052,
      "teen": 5053,
      "Metsä": 5054,
      "##oli": 5055,
      "##tonsa": 5056,
      "##maat": 5057,
      "##pist": 5058,
      "iltapäiv": 5059,
      "##intarv": 5060,
      "##kari": 5061,
      "im": 5062,
      "laitta": 5063,
      "##mmän": 5064,
      "edu": 5065,
      "tarkka": 5066,
      "##oimaan": 5067,
      "sanan": 5068,
      "mua": 5069,
      "rahat": 5070,
      "##issään": 5071,
      "Kana": 5072,
      "##tyksen": 5073,
      "potila": 5074,
      "kissa": 5075,
      "Soin": 5076,
      "tykkää": 5077,
      "##roksen": 5078,
      "##edia": 5079,
      "##ellisesti": 5080,
      "Suomea": 5081,
      "tilannetta": 5082,
      "##rian": 5083,
      "##eeseen": 5084,
      "Nel": 5085,
      "Laps": 5086,
      "yhtenä": 5087,
      "suurta": 5088,
      "kyn": 5089,
      "miehiä": 5090,
      "##lillä": 5091,
      "talouden": 5092,
      "sentään": 5093,
      "paikkaan": 5094,
      "Sta": 5095,
      "heik": 5096,
      "##kyn": 5097,
      "##elan": 5098,
      "parisuh": 5099,
      "puolueen": 5100,
      "##alien": 5101,
      "pahoin": 5102,
      "Mistä": 5103,
      "##joen": 5104,
      "di": 5105,
      "##kuntia": 5106,
      "syntyy": 5107,
      "ad": 5108,
      "use": 5109,
      "rauhan": 5110,
      "ollu": 5111,
      "##ive": 5112,
      "mik": 5113,
      "##isissä": 5114,
      "pör": 5115,
      "juhl": 5116,
      "kerton": 5117,
      "hote": 5118,
      "##EN": 5119,
      "tarkoita": 5120,
      "kokemuksia": 5121,
      "##ettavaa": 5122,
      "##joitus": 5123,
      "Tuk": 5124,
      "##itu": 5125,
      "päätty": 5126,
      "seko": 5127,
      "täältä": 5128,
      "##järven": 5129,
      "##kuntaa": 5130,
      "uhkaa": 5131,
      "enempää": 5132,
      "tuntui": 5133,
      "voitaisiin": 5134,
      "tarjolla": 5135,
      "Presiden": 5136,
      "aikoina": 5137,
      "Yks": 5138,
      "taakse": 5139,
      "##doin": 5140,
      "##20": 5141,
      "##AA": 5142,
      "##kian": 5143,
      "##ysi": 5144,
      "estää": 5145,
      "##uman": 5146,
      "lähde": 5147,
      "valmistel": 5148,
      "##yksistä": 5149,
      "tra": 5150,
      "tilasto": 5151,
      "keskellä": 5152,
      "vapaaehto": 5153,
      "##ppä": 5154,
      "##nella": 5155,
      "Jaa": 5156,
      "##uter": 5157,
      "##atiiv": 5158,
      "kaas": 5159,
      "runsaasti": 5160,
      "##joille": 5161,
      "aurinko": 5162,
      "Ken": 5163,
      "Muista": 5164,
      "ylimäärä": 5165,
      "##alaan": 5166,
      "##tumaan": 5167,
      "##juo": 5168,
      "todista": 5169,
      "Mal": 5170,
      "sanot": 5171,
      "jokaisen": 5172,
      "##tyks": 5173,
      "Koti": 5174,
      "Mann": 5175,
      "yrityksen": 5176,
      "Lei": 5177,
      "asunto": 5178,
      "yleisö": 5179,
      "täyden": 5180,
      "kuluttua": 5181,
      "##evät": 5182,
      "##eer": 5183,
      "kuullut": 5184,
      "elokuva": 5185,
      "##ajan": 5186,
      "valoku": 5187,
      "hor": 5188,
      "äidin": 5189,
      "toisessa": 5190,
      "Ste": 5191,
      "kokeilla": 5192,
      "olympia": 5193,
      "Valtion": 5194,
      "rup": 5195,
      "##ceboo": 5196,
      "##tisen": 5197,
      "Katso": 5198,
      "info": 5199,
      "##udella": 5200,
      "liiketoim": 5201,
      "palaut": 5202,
      "##llisyys": 5203,
      "Kuka": 5204,
      "juttuja": 5205,
      "##ännyt": 5206,
      "my": 5207,
      "##ass": 5208,
      "vanhemmat": 5209,
      "##dow": 5210,
      "##istun": 5211,
      "hakea": 5212,
      "hyökkää": 5213,
      "kiell": 5214,
      "tuottaa": 5215,
      "##osko": 5216,
      "pet": 5217,
      "suurempi": 5218,
      "syntyi": 5219,
      "järjestetään": 5220,
      "##kkeiden": 5221,
      "##ihteeri": 5222,
      "##alista": 5223,
      "liigan": 5224,
      "##tuminen": 5225,
      "kuulemma": 5226,
      "##este": 5227,
      "valeh": 5228,
      "Uut": 5229,
      "yliopisto": 5230,
      "##isyyttä": 5231,
      "##etyn": 5232,
      "##mpäristö": 5233,
      "##iriö": 5234,
      "raska": 5235,
      "huomenna": 5236,
      "erityisen": 5237,
      "km": 5238,
      "pals": 5239,
      "seks": 5240,
      "tulevaisuudessa": 5241,
      "toiseksi": 5242,
      "Minun": 5243,
      "pelata": 5244,
      "##kolog": 5245,
      "parantaa": 5246,
      "##eilta": 5247,
      "##istunut": 5248,
      "##kate": 5249,
      "ministeri": 5250,
      "Jukka": 5251,
      "##sson": 5252,
      "##teilla": 5253,
      "käräjä": 5254,
      "veren": 5255,
      "peh": 5256,
      "##ehän": 5257,
      "##istettu": 5258,
      "Kaksi": 5259,
      "Ede": 5260,
      "rool": 5261,
      "kuuden": 5262,
      "entinen": 5263,
      "syödä": 5264,
      "rans": 5265,
      "ois": 5266,
      "2008": 5267,
      "Ruo": 5268,
      "##itoks": 5269,
      "2009": 5270,
      "kiinnostaa": 5271,
      "##use": 5272,
      "Mun": 5273,
      "##emmä": 5274,
      "lisätä": 5275,
      "läp": 5276,
      "Mikäli": 5277,
      "lopettaa": 5278,
      "keskustelua": 5279,
      "käyttäyty": 5280,
      "31": 5281,
      "Jon": 5282,
      "valinta": 5283,
      "##dalla": 5284,
      "edistä": 5285,
      "##yhteis": 5286,
      "eks": 5287,
      "Tälla": 5288,
      "##llisuudessa": 5289,
      "##etus": 5290,
      "Kiinan": 5291,
      "voittaa": 5292,
      "puhelin": 5293,
      "syksyllä": 5294,
      "##valio": 5295,
      "kaikissa": 5296,
      "ura": 5297,
      "##yhmä": 5298,
      "##ätty": 5299,
      "jakaa": 5300,
      "dia": 5301,
      "tuote": 5302,
      "##pot": 5303,
      "alkohol": 5304,
      "Kuiten": 5305,
      "##go": 5306,
      "puhelim": 5307,
      "##ikasta": 5308,
      "Yhdysval": 5309,
      "str": 5310,
      "##jansa": 5311,
      "paino": 5312,
      "##vuutta": 5313,
      "##änen": 5314,
      "Mic": 5315,
      "Monet": 5316,
      "##ettö": 5317,
      "##empp": 5318,
      "rik": 5319,
      "##ketti": 5320,
      "Oma": 5321,
      "kuvit": 5322,
      "voiton": 5323,
      "heistä": 5324,
      "##mänä": 5325,
      "kierroks": 5326,
      "Minusta": 5327,
      "sukupuol": 5328,
      "hull": 5329,
      "##tonen": 5330,
      "katsoo": 5331,
      "onhan": 5332,
      "Lapin": 5333,
      "väkivalta": 5334,
      "##isuudesta": 5335,
      "aloitti": 5336,
      "##ostuu": 5337,
      "##tek": 5338,
      "hätä": 5339,
      "puhutaan": 5340,
      "Yhdysvallat": 5341,
      "pitkin": 5342,
      "##kkaita": 5343,
      "SDP": 5344,
      "##alist": 5345,
      "olleen": 5346,
      "##ukot": 5347,
      "työelä": 5348,
      "##telem": 5349,
      "##non": 5350,
      "pime": 5351,
      "ketj": 5352,
      "pyörä": 5353,
      "kesänä": 5354,
      "lailla": 5355,
      "ok": 5356,
      "käytän": 5357,
      "myöntää": 5358,
      "##ilas": 5359,
      "tietojen": 5360,
      "##isiksi": 5361,
      "kisa": 5362,
      "Muuta": 5363,
      "sall": 5364,
      "kunnia": 5365,
      "taiv": 5366,
      "##ilija": 5367,
      "Kur": 5368,
      "tiede": 5369,
      "rei": 5370,
      "media": 5371,
      "toiselle": 5372,
      "seuraavan": 5373,
      "##ons": 5374,
      "alkuun": 5375,
      "seis": 5376,
      "Suurin": 5377,
      "##tala": 5378,
      "todellakin": 5379,
      "Koul": 5380,
      "##fa": 5381,
      "pelasi": 5382,
      "pus": 5383,
      "kulttuuri": 5384,
      "olem": 5385,
      "Olisi": 5386,
      "##osten": 5387,
      "viimeisen": 5388,
      "erään": 5389,
      "levy": 5390,
      "##ustr": 5391,
      "vanhemm": 5392,
      "uutis": 5393,
      "paina": 5394,
      "kulta": 5395,
      "##dit": 5396,
      "kasino": 5397,
      "katsom": 5398,
      "##ismin": 5399,
      "erikseen": 5400,
      "##valti": 5401,
      "fak": 5402,
      "##kauppa": 5403,
      "käytettä": 5404,
      "##maalla": 5405,
      "mita": 5406,
      "##oikeuden": 5407,
      "##teella": 5408,
      "##kanen": 5409,
      "lehti": 5410,
      "##uring": 5411,
      "helppoa": 5412,
      "Erit": 5413,
      "liittyvät": 5414,
      "Länsi": 5415,
      "syt": 5416,
      "mennään": 5417,
      "olikin": 5418,
      "nuk": 5419,
      "##pes": 5420,
      "Ruotsissa": 5421,
      "omien": 5422,
      "Anna": 5423,
      "sodan": 5424,
      "kentä": 5425,
      "##henkilö": 5426,
      "uuteen": 5427,
      "##mmas": 5428,
      "kerralla": 5429,
      "ärs": 5430,
      "kysyä": 5431,
      "ehdottomasti": 5432,
      "etteivät": 5433,
      "pill": 5434,
      "pelaaja": 5435,
      "##missä": 5436,
      "kommun": 5437,
      "##mmät": 5438,
      "Raamatun": 5439,
      "##iini": 5440,
      "kuntien": 5441,
      "muilla": 5442,
      "sav": 5443,
      "Kansainväl": 5444,
      "##väni": 5445,
      "pul": 5446,
      "##uuksien": 5447,
      "##rah": 5448,
      "##ub": 5449,
      "##iat": 5450,
      "känn": 5451,
      "##isee": 5452,
      "##kyt": 5453,
      "Israel": 5454,
      "sanonut": 5455,
      "##eltu": 5456,
      "matkan": 5457,
      "yhdeksän": 5458,
      "sijaitsee": 5459,
      "##idan": 5460,
      "voisin": 5461,
      "asetta": 5462,
      "puuta": 5463,
      "##dun": 5464,
      "harvina": 5465,
      "##uvia": 5466,
      "vika": 5467,
      "##ikön": 5468,
      "alkavat": 5469,
      "hengen": 5470,
      "pelkää": 5471,
      "poliit": 5472,
      "monipuol": 5473,
      "ser": 5474,
      "##istien": 5475,
      "##oinn": 5476,
      "viimeinen": 5477,
      "halutaan": 5478,
      "liiton": 5479,
      "pientä": 5480,
      "tavan": 5481,
      "rinna": 5482,
      "##pallo": 5483,
      "rakentaa": 5484,
      "tilanteen": 5485,
      "rinta": 5486,
      "irtisan": 5487,
      "##hto": 5488,
      "##kettä": 5489,
      "pyytää": 5490,
      "##koti": 5491,
      "##mmista": 5492,
      "laina": 5493,
      "kumppan": 5494,
      "Pen": 5495,
      "kovaa": 5496,
      "##pat": 5497,
      "Jä": 5498,
      "##ottom": 5499,
      "sanotaan": 5500,
      "##upäiv": 5501,
      "Sh": 5502,
      "ulkopuolella": 5503,
      "politi": 5504,
      "lyhyt": 5505,
      "##vis": 5506,
      "varha": 5507,
      "Ensin": 5508,
      "##ineet": 5509,
      "Hyvin": 5510,
      "just": 5511,
      "haj": 5512,
      "Tunn": 5513,
      "##ostus": 5514,
      "TV": 5515,
      "Ara": 5516,
      "tois": 5517,
      "Uskon": 5518,
      "##vapa": 5519,
      "##isempi": 5520,
      "##eä": 5521,
      "keskimäärin": 5522,
      "yhty": 5523,
      "palstalla": 5524,
      "Uus": 5525,
      "korvaa": 5526,
      "##llesi": 5527,
      "sopiv": 5528,
      "lääkäri": 5529,
      "##kkejä": 5530,
      "##valmentaja": 5531,
      "tiiv": 5532,
      "##kyky": 5533,
      "##hka": 5534,
      "kum": 5535,
      "Herra": 5536,
      "Esp": 5537,
      "##ettavissa": 5538,
      "vasemm": 5539,
      "petty": 5540,
      "##mitta": 5541,
      "pohti": 5542,
      "##mani": 5543,
      "##ustel": 5544,
      "vanke": 5545,
      "rahan": 5546,
      "aikata": 5547,
      "sattu": 5548,
      "Fran": 5549,
      "keväällä": 5550,
      "jonne": 5551,
      "minuutin": 5552,
      "meta": 5553,
      "aluksi": 5554,
      "maailmaa": 5555,
      "##raken": 5556,
      "molemm": 5557,
      "koulu": 5558,
      "pitävät": 5559,
      "##istoa": 5560,
      "##oluut": 5561,
      "kasvu": 5562,
      "heikko": 5563,
      "##asan": 5564,
      "Lis": 5565,
      "Euroopassa": 5566,
      "pide": 5567,
      "##käsit": 5568,
      "##itteli": 5569,
      "valtuus": 5570,
      "<": 5571,
      "minister": 5572,
      "##ikana": 5573,
      "##unna": 5574,
      "Onhan": 5575,
      "##tuneen": 5576,
      "odotetaan": 5577,
      "tup": 5578,
      "voittanut": 5579,
      "muuttuu": 5580,
      "##can": 5581,
      "##ksu": 5582,
      "elo": 5583,
      "Ab": 5584,
      "##ikassa": 5585,
      "2007": 5586,
      "##utumista": 5587,
      "Yhdysvalloissa": 5588,
      "pohjo": 5589,
      "##ymys": 5590,
      "noussut": 5591,
      "alta": 5592,
      "histori": 5593,
      "laita": 5594,
      "Ruotsi": 5595,
      "tunnet": 5596,
      "onnistunut": 5597,
      "maksamaan": 5598,
      "juur": 5599,
      "välissä": 5600,
      "huomannut": 5601,
      "##emmaksi": 5602,
      "luken": 5603,
      "super": 5604,
      "vihre": 5605,
      "johtu": 5606,
      "##ush": 5607,
      "toimintaan": 5608,
      "annetaan": 5609,
      "rauta": 5610,
      "##ttien": 5611,
      "nykyisin": 5612,
      "oikeassa": 5613,
      "Hein": 5614,
      "epäs": 5615,
      "työssä": 5616,
      "toivon": 5617,
      "ottamaan": 5618,
      "##ryhmän": 5619,
      "erä": 5620,
      "Sää": 5621,
      "dig": 5622,
      "##kelin": 5623,
      "##ministerin": 5624,
      "##olf": 5625,
      "Tut": 5626,
      "leikki": 5627,
      "##tait": 5628,
      "##keil": 5629,
      "markkina": 5630,
      "oppia": 5631,
      "kulke": 5632,
      "##ellinen": 5633,
      "all": 5634,
      "väliä": 5635,
      "Jokainen": 5636,
      "veron": 5637,
      "##ryhmä": 5638,
      "metriä": 5639,
      "##KI": 5640,
      "täysi": 5641,
      "##TA": 5642,
      "##tellaan": 5643,
      "valmiiksi": 5644,
      "##kuntaan": 5645,
      "erikois": 5646,
      "jättä": 5647,
      "##ska": 5648,
      "vieras": 5649,
      "##nalla": 5650,
      "Erity": 5651,
      "rakasta": 5652,
      "fir": 5653,
      "##tyvät": 5654,
      "vahvista": 5655,
      "halv": 5656,
      "suomalaisen": 5657,
      "lie": 5658,
      "##ulo": 5659,
      "2006": 5660,
      "tart": 5661,
      "muutamia": 5662,
      "naista": 5663,
      "##mb": 5664,
      "samm": 5665,
      "##FK": 5666,
      "nautti": 5667,
      "käyttöä": 5668,
      "##itsin": 5669,
      "##varain": 5670,
      "maissa": 5671,
      "laaja": 5672,
      "##py": 5673,
      "##ustoim": 5674,
      "aamu": 5675,
      "Mielestäni": 5676,
      "##empaan": 5677,
      "teko": 5678,
      "Kuitenkin": 5679,
      "kisoissa": 5680,
      "##lää": 5681,
      "Lind": 5682,
      "Sinä": 5683,
      "veto": 5684,
      "teillä": 5685,
      "ast": 5686,
      "muitakin": 5687,
      "menettä": 5688,
      "##eellis": 5689,
      "näillä": 5690,
      "br": 5691,
      "##ellyt": 5692,
      "Laa": 5693,
      "##reiden": 5694,
      "tapaan": 5695,
      "tälle": 5696,
      "tutkimuksen": 5697,
      "##umen": 5698,
      "näl": 5699,
      "poissa": 5700,
      "##eor": 5701,
      "##eltaan": 5702,
      "Ves": 5703,
      "##evan": 5704,
      "Jer": 5705,
      "St": 5706,
      "viid": 5707,
      "vään": 5708,
      "Tu": 5709,
      "ajattelin": 5710,
      "koskee": 5711,
      "jollain": 5712,
      "kulttuur": 5713,
      "vähentää": 5714,
      "##kella": 5715,
      "##itt": 5716,
      "##rakenn": 5717,
      "union": 5718,
      "huolta": 5719,
      "##evän": 5720,
      "nähdään": 5721,
      "Kiv": 5722,
      "##kik": 5723,
      "kasa": 5724,
      "##konen": 5725,
      "reiss": 5726,
      "sopiva": 5727,
      "edellis": 5728,
      "lehden": 5729,
      "Neuvosto": 5730,
      "##lain": 5731,
      "merkittävä": 5732,
      "kk": 5733,
      "kuoleman": 5734,
      "silmä": 5735,
      "##mainen": 5736,
      "keitti": 5737,
      "syyttä": 5738,
      "##vuor": 5739,
      "sanoin": 5740,
      "##ht": 5741,
      "täys": 5742,
      "Keh": 5743,
      "##udulla": 5744,
      "Jari": 5745,
      "palestiin": 5746,
      "Hir": 5747,
      "##istoon": 5748,
      "toteutta": 5749,
      "##konä": 5750,
      "ark": 5751,
      "##päivänä": 5752,
      "Kilpail": 5753,
      "##pito": 5754,
      "##istyksen": 5755,
      "maalia": 5756,
      "muutoksia": 5757,
      "Kyse": 5758,
      "joutunut": 5759,
      "henkilöä": 5760,
      "vanhan": 5761,
      "Paika": 5762,
      "##pro": 5763,
      "houkut": 5764,
      "##huone": 5765,
      "##ettavaksi": 5766,
      "q": 5767,
      "Amer": 5768,
      "helv": 5769,
      "esimerk": 5770,
      "Ky": 5771,
      "Kata": 5772,
      "hyötyä": 5773,
      "toimiv": 5774,
      "ilmes": 5775,
      "Jat": 5776,
      "aio": 5777,
      "pohd": 5778,
      "##uote": 5779,
      "kasvoi": 5780,
      "kierr": 5781,
      "tuttu": 5782,
      "ottelua": 5783,
      "##kise": 5784,
      "mei": 5785,
      "##rilla": 5786,
      "ryhmän": 5787,
      "Vil": 5788,
      "illan": 5789,
      "##arv": 5790,
      "tuoda": 5791,
      "miks": 5792,
      "ajon": 5793,
      "sosiaali": 5794,
      "rann": 5795,
      "##miehen": 5796,
      "##omal": 5797,
      "tarkoitettu": 5798,
      "määrän": 5799,
      "lenn": 5800,
      "aiheesta": 5801,
      "##utumaan": 5802,
      "maaliva": 5803,
      "##kinnan": 5804,
      "vanhempien": 5805,
      "##äsi": 5806,
      "askel": 5807,
      "muissa": 5808,
      "Yor": 5809,
      "ensimmäisenä": 5810,
      "##th": 5811,
      "olosuh": 5812,
      "SA": 5813,
      "##ikas": 5814,
      "vieläkin": 5815,
      "##alissa": 5816,
      "##emia": 5817,
      "edustaja": 5818,
      "Siihen": 5819,
      "##pallon": 5820,
      "##huol": 5821,
      "korjaa": 5822,
      "##tuksesta": 5823,
      "maailma": 5824,
      "Th": 5825,
      "kaupungissa": 5826,
      "huonosti": 5827,
      "käytöstä": 5828,
      "sitte": 5829,
      "Väl": 5830,
      "Lat": 5831,
      "Yleensä": 5832,
      "paljoa": 5833,
      "Savon": 5834,
      "kiinteistö": 5835,
      "Että": 5836,
      "Kirja": 5837,
      "##pum": 5838,
      "##ointia": 5839,
      "##opimus": 5840,
      "kertovat": 5841,
      "Käytä": 5842,
      "pöy": 5843,
      "kaikesta": 5844,
      "perustu": 5845,
      "tyyl": 5846,
      "##ivar": 5847,
      "##järjestelmä": 5848,
      "nos": 5849,
      "##intoja": 5850,
      "lit": 5851,
      "eipä": 5852,
      "puke": 5853,
      "##käyt": 5854,
      "vuosittain": 5855,
      "henkilöstö": 5856,
      "##ittävät": 5857,
      "samat": 5858,
      "Lahden": 5859,
      "##kunnalle": 5860,
      "##töön": 5861,
      "teknolog": 5862,
      "voimassa": 5863,
      "uskova": 5864,
      "##oria": 5865,
      "viedä": 5866,
      "tulo": 5867,
      "ren": 5868,
      "toivottavasti": 5869,
      "tilalle": 5870,
      "tappio": 5871,
      "##istui": 5872,
      "sovell": 5873,
      "lainsäädän": 5874,
      "kaipaa": 5875,
      "rahoitus": 5876,
      "puhuu": 5877,
      "oppim": 5878,
      "##ustaan": 5879,
      "hiil": 5880,
      "##ger": 5881,
      "tyl": 5882,
      "hell": 5883,
      "##uutensa": 5884,
      "Aam": 5885,
      "mahdollisuuksia": 5886,
      "kiir": 5887,
      "##kaisi": 5888,
      "pelannut": 5889,
      "kaunis": 5890,
      "##toman": 5891,
      "organisa": 5892,
      "Putin": 5893,
      "##asian": 5894,
      "sääs": 5895,
      "Wa": 5896,
      "epäonn": 5897,
      "##dion": 5898,
      "Hallitus": 5899,
      "paket": 5900,
      "asema": 5901,
      "##ilua": 5902,
      "tuho": 5903,
      "##kohd": 5904,
      "##tet": 5905,
      "##terveys": 5906,
      "Ylen": 5907,
      "vastata": 5908,
      "miell": 5909,
      "Vaa": 5910,
      "hinnat": 5911,
      "aikoinaan": 5912,
      "sotilas": 5913,
      "194": 5914,
      "##ueen": 5915,
      "hyvinkin": 5916,
      "Jan": 5917,
      "yhteiskunta": 5918,
      "##oidon": 5919,
      "##aliin": 5920,
      "hankal": 5921,
      "joitakin": 5922,
      "##orin": 5923,
      "Sain": 5924,
      "paikkaa": 5925,
      "Jussi": 5926,
      "päivittäin": 5927,
      "##vuoden": 5928,
      "perso": 5929,
      "parissa": 5930,
      "liikunta": 5931,
      "rauhassa": 5932,
      "kelpaa": 5933,
      "##ris": 5934,
      "Aut": 5935,
      "lasku": 5936,
      "##teessä": 5937,
      "oltava": 5938,
      "Kannattaa": 5939,
      "seurata": 5940,
      "##talouden": 5941,
      "##turva": 5942,
      "avoin": 5943,
      "##jar": 5944,
      "anti": 5945,
      "Lö": 5946,
      "kuukaus": 5947,
      "kampan": 5948,
      "sairaan": 5949,
      "Pitää": 5950,
      "Kaa": 5951,
      "##tömästi": 5952,
      "Iso": 5953,
      "ainut": 5954,
      "otettu": 5955,
      "kiinnostunut": 5956,
      "auta": 5957,
      "##ikoista": 5958,
      "##ittävä": 5959,
      "##oillaan": 5960,
      "Britannian": 5961,
      "##misessä": 5962,
      "kansallis": 5963,
      "##talon": 5964,
      "36": 5965,
      "yhteiskunnan": 5966,
      "viikonloppuna": 5967,
      "##utuneet": 5968,
      "##tuneita": 5969,
      "yritti": 5970,
      "Ras": 5971,
      "hää": 5972,
      "viestintä": 5973,
      "##het": 5974,
      "Niinistö": 5975,
      "löydy": 5976,
      "Joens": 5977,
      "nuoret": 5978,
      "tyypp": 5979,
      "ots": 5980,
      "Muuten": 5981,
      "matkus": 5982,
      "työttömyys": 5983,
      "säv": 5984,
      "##tein": 5985,
      "##miselle": 5986,
      "Kokoom": 5987,
      "naim": 5988,
      "raamat": 5989,
      "kom": 5990,
      "##err": 5991,
      "kaikkein": 5992,
      "##irin": 5993,
      "##jala": 5994,
      "32": 5995,
      "##suom": 5996,
      "säh": 5997,
      "viha": 5998,
      "##dr": 5999,
      "##ya": 6000,
      "paikallis": 6001,
      "tietenkään": 6002,
      "tulokset": 6003,
      "riittävästi": 6004,
      "Tek": 6005,
      "muutakin": 6006,
      "katsel": 6007,
      "tekijä": 6008,
      "kansalais": 6009,
      "lapsille": 6010,
      "kakkos": 6011,
      "eroon": 6012,
      "alen": 6013,
      "kiire": 6014,
      "##gon": 6015,
      "##kussa": 6016,
      "##oinnin": 6017,
      "##mahdo": 6018,
      "huv": 6019,
      "asuu": 6020,
      "##keaa": 6021,
      "parhaiten": 6022,
      "lähettää": 6023,
      "sek": 6024,
      "##isan": 6025,
      "ylläpitä": 6026,
      "luvan": 6027,
      "uno": 6028,
      "##kittu": 6029,
      "seuran": 6030,
      "puolelle": 6031,
      "##uan": 6032,
      "näissä": 6033,
      "##etel": 6034,
      "Elo": 6035,
      "##aleja": 6036,
      "##työ": 6037,
      "nur": 6038,
      "##kkoja": 6039,
      "varoit": 6040,
      "rekisterö": 6041,
      "elintarv": 6042,
      "paljas": 6043,
      "hymy": 6044,
      "ansiosta": 6045,
      "toimiva": 6046,
      "##töjen": 6047,
      "##tain": 6048,
      "##jattu": 6049,
      "euroopp": 6050,
      "##gissa": 6051,
      "##kita": 6052,
      "lopuksi": 6053,
      "kerää": 6054,
      "asioiden": 6055,
      "erot": 6056,
      "##iväl": 6057,
      "heidät": 6058,
      "pik": 6059,
      "vaimo": 6060,
      "tällöin": 6061,
      "seurauksena": 6062,
      "län": 6063,
      "##ltavasti": 6064,
      "ny": 6065,
      "##sän": 6066,
      "##estiva": 6067,
      "mielik": 6068,
      "ristiri": 6069,
      "##hyö": 6070,
      "Lappeen": 6071,
      "##hen": 6072,
      "muutkin": 6073,
      "kielen": 6074,
      "##omin": 6075,
      "herm": 6076,
      "Lipp": 6077,
      "##onnut": 6078,
      "##ties": 6079,
      "ev": 6080,
      "jyr": 6081,
      "Ts": 6082,
      "##mmasta": 6083,
      "##attisesti": 6084,
      "##stit": 6085,
      "Ser": 6086,
      "matkaa": 6087,
      "sinut": 6088,
      "Onn": 6089,
      "##teistä": 6090,
      "kirjoitti": 6091,
      "##unto": 6092,
      "##telyn": 6093,
      "##mur": 6094,
      "##yksissä": 6095,
      "vahva": 6096,
      "osapuol": 6097,
      "##alinen": 6098,
      "erityis": 6099,
      "Keskusta": 6100,
      "tapahtuma": 6101,
      "2005": 6102,
      "nimim": 6103,
      "uusien": 6104,
      "jatkoi": 6105,
      "kyy": 6106,
      "ajankohta": 6107,
      "##fer": 6108,
      "löytänyt": 6109,
      "##detaan": 6110,
      "tällainen": 6111,
      "valmentaja": 6112,
      "Noin": 6113,
      "taida": 6114,
      "löytynyt": 6115,
      "väittää": 6116,
      "maananta": 6117,
      "Joku": 6118,
      "sivusto": 6119,
      "##teinen": 6120,
      "##vaihe": 6121,
      "törke": 6122,
      "Austr": 6123,
      "ohjelman": 6124,
      "alueelle": 6125,
      "heiken": 6126,
      "normaalia": 6127,
      "kilpailun": 6128,
      "##iikki": 6129,
      "kumma": 6130,
      "mitkä": 6131,
      "##ukes": 6132,
      "##astoin": 6133,
      "pakot": 6134,
      "##innin": 6135,
      "suomalaista": 6136,
      "kasvanut": 6137,
      "##rillä": 6138,
      "pahasti": 6139,
      "##essin": 6140,
      "##dat": 6141,
      "tiedossa": 6142,
      "##rr": 6143,
      "##yttiin": 6144,
      "olympi": 6145,
      "Vas": 6146,
      "riittävän": 6147,
      "professori": 6148,
      "##lah": 6149,
      "pers": 6150,
      "Faceboo": 6151,
      "Rovani": 6152,
      "haav": 6153,
      "halusi": 6154,
      "joukkoon": 6155,
      "touh": 6156,
      "pitkälle": 6157,
      "pärjää": 6158,
      "33": 6159,
      "musiikin": 6160,
      "sulla": 6161,
      "peliä": 6162,
      "##matka": 6163,
      "ruotsin": 6164,
      "annettu": 6165,
      "peräti": 6166,
      "##lass": 6167,
      "selittää": 6168,
      "toiset": 6169,
      "paikassa": 6170,
      "##isu": 6171,
      "sot": 6172,
      "##emmalla": 6173,
      "##gar": 6174,
      "alb": 6175,
      "opera": 6176,
      "Iran": 6177,
      "allekirjoit": 6178,
      "kevy": 6179,
      "##eskel": 6180,
      "##teeni": 6181,
      "gra": 6182,
      "hauskaa": 6183,
      "joutu": 6184,
      "##emisen": 6185,
      "keskenään": 6186,
      "##jaks": 6187,
      "##llisessa": 6188,
      "sekuntia": 6189,
      "##juttu": 6190,
      "##ostaan": 6191,
      "##ikul": 6192,
      "##teluun": 6193,
      "Tänä": 6194,
      "ihmisille": 6195,
      "##koil": 6196,
      "##llisuudesta": 6197,
      "##iteet": 6198,
      "historian": 6199,
      "etä": 6200,
      "II": 6201,
      "normaali": 6202,
      "##ystävä": 6203,
      "tarkemmin": 6204,
      "lopputul": 6205,
      "Kai": 6206,
      "##pio": 6207,
      "Sama": 6208,
      "##asivat": 6209,
      "pahaa": 6210,
      "viimeksi": 6211,
      "##viksi": 6212,
      "vaadi": 6213,
      "autoa": 6214,
      "hankkia": 6215,
      "HI": 6216,
      "aat": 6217,
      "perässä": 6218,
      "teet": 6219,
      "pät": 6220,
      "laula": 6221,
      "##keri": 6222,
      "muuttu": 6223,
      "##isyyden": 6224,
      "normaalisti": 6225,
      "täs": 6226,
      "##taminen": 6227,
      "aikanaan": 6228,
      "Luul": 6229,
      "kysyn": 6230,
      "lopulla": 6231,
      "##tannon": 6232,
      "tuolloin": 6233,
      "hoitoon": 6234,
      "pyritään": 6235,
      "isku": 6236,
      "strateg": 6237,
      "jälki": 6238,
      "näytä": 6239,
      "ui": 6240,
      "##pide": 6241,
      "##hil": 6242,
      "vaja": 6243,
      "Stu": 6244,
      "ps": 6245,
      "Sve": 6246,
      "toteuttaa": 6247,
      "ymmärtä": 6248,
      "tarvetta": 6249,
      "oikean": 6250,
      "kymmeniä": 6251,
      "neg": 6252,
      "kokemus": 6253,
      "ilmoittaa": 6254,
      "##alue": 6255,
      "maailmanc": 6256,
      "muslim": 6257,
      "ulkonä": 6258,
      "pelejä": 6259,
      "stä": 6260,
      "maahanmuutta": 6261,
      "##gas": 6262,
      "##strö": 6263,
      "tehneet": 6264,
      "ase": 6265,
      "mielestään": 6266,
      "äit": 6267,
      "lukee": 6268,
      "haki": 6269,
      "uskonno": 6270,
      "selkä": 6271,
      "##eltiin": 6272,
      "Eri": 6273,
      "koste": 6274,
      "keskustan": 6275,
      "siirto": 6276,
      "##ily": 6277,
      "##atiota": 6278,
      "näe": 6279,
      "##otonta": 6280,
      "maasta": 6281,
      "muodosta": 6282,
      "selkeästi": 6283,
      "##ittava": 6284,
      "komen": 6285,
      "##haan": 6286,
      "matkalla": 6287,
      "juom": 6288,
      "palj": 6289,
      "edellisen": 6290,
      "saattavat": 6291,
      "sukupol": 6292,
      "##ilm": 6293,
      "oppos": 6294,
      "##yhtiön": 6295,
      "lähtenyt": 6296,
      "urheili": 6297,
      "varr": 6298,
      "kehittää": 6299,
      "##erä": 6300,
      "##ec": 6301,
      "##pul": 6302,
      "hotell": 6303,
      "suomalaisia": 6304,
      "##tro": 6305,
      "##osan": 6306,
      "posta": 6307,
      "##poliitt": 6308,
      "Terve": 6309,
      "Henkilö": 6310,
      "##enin": 6311,
      "##tyneet": 6312,
      "##uttavat": 6313,
      "saun": 6314,
      "##emokraat": 6315,
      "merkitys": 6316,
      "kisojen": 6317,
      "Joo": 6318,
      "##estejä": 6319,
      "tuhans": 6320,
      "tiedät": 6321,
      "##huollon": 6322,
      "henkilön": 6323,
      "##tas": 6324,
      "##torin": 6325,
      "Palvel": 6326,
      "##kasv": 6327,
      "ret": 6328,
      "##ooli": 6329,
      "Usko": 6330,
      "kaksin": 6331,
      "olekaan": 6332,
      "elämästä": 6333,
      "##villä": 6334,
      "hyvältä": 6335,
      "aid": 6336,
      "koto": 6337,
      "avar": 6338,
      "osallistua": 6339,
      "palvelut": 6340,
      "Edus": 6341,
      "##uhan": 6342,
      "rip": 6343,
      "syvä": 6344,
      "Linkki": 6345,
      "Pol": 6346,
      "elinkein": 6347,
      "loput": 6348,
      "##iassa": 6349,
      "##nön": 6350,
      "##ttiä": 6351,
      "Am": 6352,
      "##kkeitä": 6353,
      "kulkee": 6354,
      "##itun": 6355,
      "Mosko": 6356,
      "ost": 6357,
      "##immillaan": 6358,
      "nat": 6359,
      "online": 6360,
      "##ers": 6361,
      "John": 6362,
      "sotila": 6363,
      "##ester": 6364,
      "alko": 6365,
      "Tim": 6366,
      "tarjota": 6367,
      "150": 6368,
      "taustalla": 6369,
      "kertonut": 6370,
      "##urheil": 6371,
      "##ksilla": 6372,
      "euro": 6373,
      "teollisuus": 6374,
      "yönä": 6375,
      "Ville": 6376,
      "suosi": 6377,
      "olevia": 6378,
      "vihdoin": 6379,
      "Sella": 6380,
      "##kkonen": 6381,
      "Kouv": 6382,
      "vois": 6383,
      "##ukseni": 6384,
      "##täjä": 6385,
      "inh": 6386,
      "esitys": 6387,
      "##järjestelmän": 6388,
      "##tiedot": 6389,
      "tarpeen": 6390,
      "Ensimmäinen": 6391,
      "yhteistyötä": 6392,
      "##ketta": 6393,
      "##kkar": 6394,
      "iltapäivällä": 6395,
      "suhde": 6396,
      "Oul": 6397,
      "sivi": 6398,
      "krist": 6399,
      "valik": 6400,
      "##assaan": 6401,
      "##empana": 6402,
      "##musta": 6403,
      "##umia": 6404,
      "puhta": 6405,
      "##istoimisto": 6406,
      "Joker": 6407,
      "##tyn": 6408,
      "##järv": 6409,
      "tulosta": 6410,
      "##km": 6411,
      "lahja": 6412,
      "sukula": 6413,
      "lukuun": 6414,
      "Venäjällä": 6415,
      "Valta": 6416,
      "pelä": 6417,
      "auring": 6418,
      "Italian": 6419,
      "fiil": 6420,
      "##umero": 6421,
      "##euvoston": 6422,
      "##usar": 6423,
      "joo": 6424,
      "ulkona": 6425,
      "##ytyä": 6426,
      "Heng": 6427,
      "bän": 6428,
      "##by": 6429,
      "vaihd": 6430,
      "##kumen": 6431,
      "hänestä": 6432,
      "demo": 6433,
      "##kkaat": 6434,
      "pysäh": 6435,
      "Samoin": 6436,
      "sisältä": 6437,
      "Afr": 6438,
      "julkista": 6439,
      "pienempi": 6440,
      "##etyt": 6441,
      "sovit": 6442,
      "parann": 6443,
      "##empään": 6444,
      "prot": 6445,
      "##vinnyt": 6446,
      "lla": 6447,
      "##kuo": 6448,
      "##tena": 6449,
      "Ään": 6450,
      "jäljellä": 6451,
      "Ilta": 6452,
      "nähden": 6453,
      "vastasi": 6454,
      "2004": 6455,
      "tarvittaessa": 6456,
      "Halu": 6457,
      "Bel": 6458,
      "asuin": 6459,
      "Holl": 6460,
      "tanssi": 6461,
      "vastaava": 6462,
      "pelast": 6463,
      "yleisesti": 6464,
      "puuttuu": 6465,
      "sell": 6466,
      "##iaika": 6467,
      "siirtyy": 6468,
      "##järvi": 6469,
      "##tille": 6470,
      "kahta": 6471,
      "tunnel": 6472,
      "poistaa": 6473,
      "Tarko": 6474,
      "Ranska": 6475,
      "Mc": 6476,
      "##jeli": 6477,
      "sattui": 6478,
      "##mmassa": 6479,
      "##ord": 6480,
      "Tavoit": 6481,
      "kunna": 6482,
      "Urheil": 6483,
      "tuloksen": 6484,
      "##unnon": 6485,
      "##ardin": 6486,
      "##västä": 6487,
      "##llisista": 6488,
      "kyky": 6489,
      "Nokian": 6490,
      "suhteell": 6491,
      "taiteili": 6492,
      "haluaisin": 6493,
      "vala": 6494,
      "##ityksestä": 6495,
      "ov": 6496,
      "viiv": 6497,
      "menetel": 6498,
      "valmenta": 6499,
      "onnistuu": 6500,
      "tajua": 6501,
      "tarpe": 6502,
      "##upal": 6503,
      "##ihto": 6504,
      "näy": 6505,
      "päätöks": 6506,
      "Pat": 6507,
      "iku": 6508,
      "parempaa": 6509,
      "ääni": 6510,
      "investoin": 6511,
      "harm": 6512,
      "##nus": 6513,
      "##imat": 6514,
      "##onl": 6515,
      "kuiv": 6516,
      "tähden": 6517,
      "keks": 6518,
      "vahvasti": 6519,
      "kevät": 6520,
      "sarjassa": 6521,
      "##immä": 6522,
      "##opi": 6523,
      "##jilla": 6524,
      "##upp": 6525,
      "häl": 6526,
      "sekunn": 6527,
      "tärkei": 6528,
      "koneen": 6529,
      "##emu": 6530,
      "Ala": 6531,
      "##vuuden": 6532,
      "suostu": 6533,
      "tuotteita": 6534,
      "##jetti": 6535,
      "ly": 6536,
      "ohella": 6537,
      "##desta": 6538,
      "##mpan": 6539,
      "##eks": 6540,
      "tyypi": 6541,
      "epävar": 6542,
      "brit": 6543,
      "nimeä": 6544,
      "##eltään": 6545,
      "Poliisin": 6546,
      "34": 6547,
      "##aleissa": 6548,
      "Mut": 6549,
      "fiks": 6550,
      "##ilanne": 6551,
      "Alku": 6552,
      "viit": 6553,
      "##pissa": 6554,
      "vahvistaa": 6555,
      "esillä": 6556,
      "##kijoiden": 6557,
      "uudist": 6558,
      "##isteja": 6559,
      "katsomaan": 6560,
      "tarkoituksena": 6561,
      "##lien": 6562,
      "Son": 6563,
      "talven": 6564,
      "kristi": 6565,
      "naap": 6566,
      "##jiin": 6567,
      "ongelmat": 6568,
      "muodossa": 6569,
      "##ci": 6570,
      "perustusla": 6571,
      "hyödy": 6572,
      "##xin": 6573,
      "Kyseessä": 6574,
      "onnistui": 6575,
      "negatiiv": 6576,
      "kolmannen": 6577,
      "##kaas": 6578,
      "##hu": 6579,
      "##suh": 6580,
      "lakka": 6581,
      "päte": 6582,
      "tunti": 6583,
      "minäkin": 6584,
      "Paavo": 6585,
      "##koulun": 6586,
      "pohjalta": 6587,
      "jaksaa": 6588,
      "2016": 6589,
      "##tikor": 6590,
      "##kone": 6591,
      "nauttia": 6592,
      "##ytyi": 6593,
      "##oitan": 6594,
      "##llio": 6595,
      "##ttelu": 6596,
      "käytännön": 6597,
      "kenenkään": 6598,
      "olevien": 6599,
      "harvoin": 6600,
      "koulussa": 6601,
      "##ettavan": 6602,
      "##essäni": 6603,
      "korkein": 6604,
      "##ittäjä": 6605,
      "hahm": 6606,
      "##iker": 6607,
      "##uksilla": 6608,
      "##TO": 6609,
      "##jin": 6610,
      "##tra": 6611,
      "mora": 6612,
      "pienet": 6613,
      "##sul": 6614,
      "Tila": 6615,
      "puheenjohta": 6616,
      "Jyväskylän": 6617,
      "vakavasti": 6618,
      "puolis": 6619,
      "##yistä": 6620,
      "merkki": 6621,
      "##tuut": 6622,
      "pidän": 6623,
      "vastaus": 6624,
      "valittu": 6625,
      "syste": 6626,
      "piha": 6627,
      "osittain": 6628,
      "muuttunut": 6629,
      "liiga": 6630,
      "voisivat": 6631,
      "keskustella": 6632,
      "useimm": 6633,
      "oot": 6634,
      "##ish": 6635,
      "##kuntien": 6636,
      "##ssit": 6637,
      "seuraava": 6638,
      "tarvin": 6639,
      "##otusta": 6640,
      "##lei": 6641,
      "kivaa": 6642,
      "Norjan": 6643,
      "sairaus": 6644,
      "600": 6645,
      "##uc": 6646,
      "käd": 6647,
      "##emur": 6648,
      "edellyttää": 6649,
      "Moni": 6650,
      "##öyr": 6651,
      "Ukrainan": 6652,
      "##hallituksen": 6653,
      "##alueen": 6654,
      "neli": 6655,
      "##tikin": 6656,
      "##kyv": 6657,
      "osake": 6658,
      "etsin": 6659,
      "joille": 6660,
      "##tär": 6661,
      "itselleni": 6662,
      "##eellisen": 6663,
      "##okseen": 6664,
      "työmarkkin": 6665,
      "Huo": 6666,
      "kov": 6667,
      "yliopist": 6668,
      "##tietoja": 6669,
      "kuntoon": 6670,
      "##ityksiä": 6671,
      "erää": 6672,
      "suoja": 6673,
      "kuvitella": 6674,
      "##taneen": 6675,
      "lukenut": 6676,
      "##poli": 6677,
      "etsiä": 6678,
      "nii": 6679,
      "##kaupan": 6680,
      "taiva": 6681,
      "fan": 6682,
      "puoliväl": 6683,
      "##nne": 6684,
      "pall": 6685,
      "Kukaan": 6686,
      "haukku": 6687,
      "##mina": 6688,
      "roma": 6689,
      "##umis": 6690,
      "pela": 6691,
      "##kentä": 6692,
      "jatkoa": 6693,
      "##uummin": 6694,
      "pelit": 6695,
      "laski": 6696,
      "muoto": 6697,
      "käytön": 6698,
      "##yöstä": 6699,
      "tyr": 6700,
      "Pid": 6701,
      "musiikki": 6702,
      "Tapp": 6703,
      "##mil": 6704,
      "##mpö": 6705,
      "viimeistään": 6706,
      "##laatu": 6707,
      "viittaa": 6708,
      "poliis": 6709,
      "vauhd": 6710,
      "kuning": 6711,
      "meistä": 6712,
      "##tellä": 6713,
      "netissä": 6714,
      "Ohjel": 6715,
      "pitämään": 6716,
      "alha": 6717,
      "valv": 6718,
      "##paikkaa": 6719,
      "Ain": 6720,
      "##kät": 6721,
      "kävin": 6722,
      "vakuutus": 6723,
      "epäillään": 6724,
      "nähty": 6725,
      "yritykset": 6726,
      "##alto": 6727,
      "##hallin": 6728,
      "##tukseen": 6729,
      "##siiv": 6730,
      "Varsin": 6731,
      "##urn": 6732,
      "Entä": 6733,
      "##joukko": 6734,
      "75": 6735,
      "purka": 6736,
      "##käynn": 6737,
      "opin": 6738,
      "hita": 6739,
      "##kaat": 6740,
      "polttoa": 6741,
      "valitettavasti": 6742,
      "##vaus": 6743,
      "##lun": 6744,
      "##itio": 6745,
      "juon": 6746,
      "vauhtia": 6747,
      "Luokka": 6748,
      "Presidentti": 6749,
      "huolto": 6750,
      "nuoria": 6751,
      "tappa": 6752,
      "##ikor": 6753,
      "Mel": 6754,
      "esimerkki": 6755,
      "##ilaisen": 6756,
      "hakem": 6757,
      "llä": 6758,
      "##ottavaa": 6759,
      "##mall": 6760,
      "mahdollinen": 6761,
      "kamppail": 6762,
      "##piä": 6763,
      "Oletko": 6764,
      "##ittaja": 6765,
      "törmä": 6766,
      "tunnu": 6767,
      "kuvittel": 6768,
      "mietin": 6769,
      "Ö": 6770,
      "##kistä": 6771,
      "Totta": 6772,
      "##verk": 6773,
      "##uihin": 6774,
      "tulevan": 6775,
      "teitä": 6776,
      "pull": 6777,
      "pojan": 6778,
      "suol": 6779,
      "kaukana": 6780,
      "Lue": 6781,
      "lom": 6782,
      "huut": 6783,
      "##dows": 6784,
      "sivus": 6785,
      "mahdollisuuden": 6786,
      "Emme": 6787,
      "lehdistö": 6788,
      "sovi": 6789,
      "varus": 6790,
      "monim": 6791,
      "seksi": 6792,
      "arki": 6793,
      "Sup": 6794,
      "Olli": 6795,
      "##ikös": 6796,
      "##uvien": 6797,
      "##kkain": 6798,
      "##kula": 6799,
      "noista": 6800,
      "poi": 6801,
      "##are": 6802,
      "Ad": 6803,
      "Jotkut": 6804,
      "##AL": 6805,
      "Geor": 6806,
      "Irakin": 6807,
      "siirtää": 6808,
      "aikojen": 6809,
      "vatsa": 6810,
      "Aivan": 6811,
      "Tukhol": 6812,
      "johtoon": 6813,
      "selviää": 6814,
      "minne": 6815,
      "##cin": 6816,
      "##isat": 6817,
      "valo": 6818,
      "##kijää": 6819,
      "riippuu": 6820,
      "kokenut": 6821,
      "raj": 6822,
      "napp": 6823,
      "armeijan": 6824,
      "kaupa": 6825,
      "Nuo": 6826,
      "##24": 6827,
      "Matka": 6828,
      "##ood": 6829,
      "ollessa": 6830,
      "lauka": 6831,
      "lämpim": 6832,
      "nykyinen": 6833,
      "##data": 6834,
      "itseäni": 6835,
      "järjestelmä": 6836,
      "##elia": 6837,
      "mukavaa": 6838,
      "Lasten": 6839,
      "Yleis": 6840,
      "##aria": 6841,
      "ajatuksia": 6842,
      "##hoito": 6843,
      "Ongel": 6844,
      "rajan": 6845,
      "##ottaja": 6846,
      "##eellistä": 6847,
      "ts": 6848,
      "##bet": 6849,
      "läsnä": 6850,
      "yhteinen": 6851,
      "voimme": 6852,
      "vaiva": 6853,
      "pudotus": 6854,
      "omistaja": 6855,
      "Ex": 6856,
      "Missä": 6857,
      "Nokia": 6858,
      "##keita": 6859,
      "##keja": 6860,
      "Ari": 6861,
      "Raamattu": 6862,
      "suih": 6863,
      "kl": 6864,
      "seksiä": 6865,
      "ylivoima": 6866,
      "iha": 6867,
      "##za": 6868,
      "vang": 6869,
      "##nöt": 6870,
      "ehtinyt": 6871,
      "mieheni": 6872,
      "##ketiet": 6873,
      "Sosia": 6874,
      "##itoa": 6875,
      "luokan": 6876,
      "paska": 6877,
      "ate": 6878,
      "Lait": 6879,
      "Blu": 6880,
      "##ltaan": 6881,
      "yhdys": 6882,
      "vaivaa": 6883,
      "remon": 6884,
      "Sähkö": 6885,
      "tunnettu": 6886,
      "##tilas": 6887,
      "##AN": 6888,
      "##teo": 6889,
      "katsotaan": 6890,
      "##imaan": 6891,
      "määrin": 6892,
      "##läinen": 6893,
      "sulle": 6894,
      "Lau": 6895,
      "quote": 6896,
      "malli": 6897,
      "04": 6898,
      "##istyö": 6899,
      "##elämän": 6900,
      "##bian": 6901,
      "lämmin": 6902,
      "vuotiaana": 6903,
      "myönn": 6904,
      "vieressä": 6905,
      "##pros": 6906,
      "sääd": 6907,
      "##sivat": 6908,
      "erässä": 6909,
      "oliko": 6910,
      "for": 6911,
      "1990": 6912,
      "tällaista": 6913,
      "eläke": 6914,
      "saamaan": 6915,
      "##laan": 6916,
      "##laus": 6917,
      "##uille": 6918,
      "moti": 6919,
      "Sata": 6920,
      "far": 6921,
      "55": 6922,
      "sanaa": 6923,
      "lauta": 6924,
      "ranska": 6925,
      "Luu": 6926,
      "tilanteesta": 6927,
      "totuus": 6928,
      "tekijö": 6929,
      "tarve": 6930,
      "nähtä": 6931,
      "##emista": 6932,
      "##inkaan": 6933,
      "Vanhan": 6934,
      "vahin": 6935,
      "pop": 6936,
      "##yhmän": 6937,
      "mess": 6938,
      "näihin": 6939,
      "näytteli": 6940,
      "hiljaa": 6941,
      "Tiedän": 6942,
      "koskevat": 6943,
      "Pohjo": 6944,
      "kylmä": 6945,
      "##itoim": 6946,
      "##kumppan": 6947,
      "luoda": 6948,
      "Espanjan": 6949,
      "##astossa": 6950,
      "##telev": 6951,
      "virhe": 6952,
      "##itykseen": 6953,
      "Musta": 6954,
      "seuraavat": 6955,
      "haastattelussa": 6956,
      "velvo": 6957,
      "##ostusta": 6958,
      "tutkin": 6959,
      "##dassa": 6960,
      "päättyy": 6961,
      "päävalmentaja": 6962,
      "##hallitus": 6963,
      "##isar": 6964,
      "merkin": 6965,
      "Näyt": 6966,
      "kuussa": 6967,
      "##iltaan": 6968,
      "##perh": 6969,
      "pell": 6970,
      "öljy": 6971,
      "Niitä": 6972,
      "##atkais": 6973,
      "johti": 6974,
      "paa": 6975,
      "ajoi": 6976,
      "hauta": 6977,
      "eräs": 6978,
      "Sinun": 6979,
      "pisteen": 6980,
      "foor": 6981,
      "todellinen": 6982,
      "##hdin": 6983,
      "muusta": 6984,
      "##tarkas": 6985,
      "Mur": 6986,
      "##miehet": 6987,
      "yöllä": 6988,
      "menevät": 6989,
      "keino": 6990,
      "hävisi": 6991,
      "Kirjoit": 6992,
      "erän": 6993,
      "ehkäis": 6994,
      "Fr": 6995,
      "palkkaa": 6996,
      "##uoto": 6997,
      "tunnista": 6998,
      "##hinta": 6999,
      "tapaus": 7000,
      "pyrkii": 7001,
      "seikka": 7002,
      "ravintol": 7003,
      "##viranoma": 7004,
      "##ikkoa": 7005,
      "kilometriä": 7006,
      "juurikaan": 7007,
      "##kkeelle": 7008,
      "##kai": 7009,
      "Juuri": 7010,
      "pelissä": 7011,
      "##tim": 7012,
      "Kunta": 7013,
      "Valko": 7014,
      "##oksesta": 7015,
      "energian": 7016,
      "##ikaan": 7017,
      "viisa": 7018,
      "##ostettu": 7019,
      "Sy": 7020,
      "##tisi": 7021,
      "##vero": 7022,
      "Järjes": 7023,
      "tuore": 7024,
      "Heikki": 7025,
      "pinta": 7026,
      "800": 7027,
      "kenelle": 7028,
      "Hon": 7029,
      "kärj": 7030,
      "##llisiin": 7031,
      "saatavilla": 7032,
      "##lässä": 7033,
      "##virasto": 7034,
      "##ukseksi": 7035,
      "kenties": 7036,
      "joutuvat": 7037,
      "luultavasti": 7038,
      "38": 7039,
      "avusta": 7040,
      "##LE": 7041,
      "##ji": 7042,
      "Sir": 7043,
      "Afgan": 7044,
      "##ilaiset": 7045,
      "Eipä": 7046,
      "Nur": 7047,
      "perustel": 7048,
      "##isija": 7049,
      "käyttänyt": 7050,
      "sulj": 7051,
      "Naisten": 7052,
      "oikeutta": 7053,
      "korostaa": 7054,
      "##ekka": 7055,
      "sähköposti": 7056,
      "2003": 7057,
      "viranomaiset": 7058,
      "##gra": 7059,
      "haavoit": 7060,
      "##itoista": 7061,
      "lääkärin": 7062,
      "arvosta": 7063,
      "mal": 7064,
      "kin": 7065,
      "##anut": 7066,
      "arvel": 7067,
      "##uskin": 7068,
      "##ttaa": 7069,
      "dollaria": 7070,
      "##fin": 7071,
      "epäilty": 7072,
      "rikka": 7073,
      "Yhtiö": 7074,
      "palo": 7075,
      "voittaja": 7076,
      "Internet": 7077,
      "dokumen": 7078,
      "Tampereella": 7079,
      "##harjoit": 7080,
      "soittaa": 7081,
      "##ow": 7082,
      "paikkansa": 7083,
      "uskal": 7084,
      "prosenttiin": 7085,
      "vasten": 7086,
      "##mpää": 7087,
      "##des": 7088,
      "Kain": 7089,
      "hetki": 7090,
      "parhaillaan": 7091,
      "##tonin": 7092,
      "sanottu": 7093,
      "Sisä": 7094,
      "itseni": 7095,
      "nykyistä": 7096,
      "rus": 7097,
      "##yhty": 7098,
      "maahanmuut": 7099,
      "Kuul": 7100,
      "Ben": 7101,
      "##mmärr": 7102,
      "##sasta": 7103,
      "##väen": 7104,
      "##voiman": 7105,
      "Rakenn": 7106,
      "pelkkä": 7107,
      "väestö": 7108,
      "poikkeuksell": 7109,
      "kahteen": 7110,
      "##vyyttä": 7111,
      "maase": 7112,
      "kodin": 7113,
      "näkökulmasta": 7114,
      "Janne": 7115,
      "Halua": 7116,
      "##salu": 7117,
      "syrjä": 7118,
      "##kustann": 7119,
      "tuhansia": 7120,
      "olevaa": 7121,
      "##fo": 7122,
      "hampa": 7123,
      "suuret": 7124,
      "noudatta": 7125,
      "##osassa": 7126,
      "ranta": 7127,
      "evan": 7128,
      "##vaku": 7129,
      "##umm": 7130,
      "mahdollisuutta": 7131,
      "##dista": 7132,
      "Lopp": 7133,
      "##gyp": 7134,
      "Joukku": 7135,
      "##ote": 7136,
      "##nell": 7137,
      "##ottava": 7138,
      "37": 7139,
      "##vaikut": 7140,
      "parhaan": 7141,
      "vuok": 7142,
      "Kansan": 7143,
      "mielellään": 7144,
      "##kl": 7145,
      "##ksiin": 7146,
      "tavat": 7147,
      "##yksellä": 7148,
      "Karjalan": 7149,
      "mahdollisuudet": 7150,
      "##jäsen": 7151,
      "eduskunnan": 7152,
      "##eenä": 7153,
      "tulevaisuuden": 7154,
      "Saksassa": 7155,
      "kärki": 7156,
      "ilmasto": 7157,
      "satoja": 7158,
      "sosiaalit": 7159,
      "##KP": 7160,
      "##itykset": 7161,
      "kohden": 7162,
      "##login": 7163,
      "Täytyy": 7164,
      "##idon": 7165,
      "kokouksessa": 7166,
      "tunnus": 7167,
      "sosi": 7168,
      "Kreikan": 7169,
      "##mmäisen": 7170,
      "suut": 7171,
      "At": 7172,
      "##ustettu": 7173,
      "bon": 7174,
      "kei": 7175,
      "Vastaa": 7176,
      "raaka": 7177,
      "vaativat": 7178,
      "##attom": 7179,
      "##ikoita": 7180,
      "ilmiö": 7181,
      "päättyi": 7182,
      "##iiv": 7183,
      "##gressi": 7184,
      "rav": 7185,
      "soitta": 7186,
      "kuluessa": 7187,
      "ch": 7188,
      "##hia": 7189,
      "eläim": 7190,
      "Viron": 7191,
      "##ität": 7192,
      "##tavan": 7193,
      "arvioidaan": 7194,
      "hakemaan": 7195,
      "Peli": 7196,
      "maksu": 7197,
      "yrittänyt": 7198,
      "hirv": 7199,
      "musiikkia": 7200,
      "Les": 7201,
      "##eily": 7202,
      "Tuu": 7203,
      "ihas": 7204,
      "kirjoittanut": 7205,
      "193": 7206,
      "##vastoin": 7207,
      "##äyt": 7208,
      "Tär": 7209,
      "Kristuksen": 7210,
      "##taalla": 7211,
      "tuloksia": 7212,
      "Paljon": 7213,
      "kuulostaa": 7214,
      "##llisella": 7215,
      "##IK": 7216,
      "the": 7217,
      "kansainvälisen": 7218,
      "##ojaan": 7219,
      "Viik": 7220,
      "kierroksella": 7221,
      "hienoa": 7222,
      "##tto": 7223,
      "moottori": 7224,
      "##elty": 7225,
      "au": 7226,
      "##uneen": 7227,
      "ulkoministeri": 7228,
      "Vähän": 7229,
      "##yttävää": 7230,
      "dem": 7231,
      "käsin": 7232,
      "pitkäaika": 7233,
      "tarjon": 7234,
      "Fl": 7235,
      "jäävät": 7236,
      "##isina": 7237,
      "yhteys": 7238,
      "##keet": 7239,
      "lang": 7240,
      "vanhoja": 7241,
      "kamer": 7242,
      "esiintyy": 7243,
      "##pite": 7244,
      "ohjelm": 7245,
      "kappale": 7246,
      "Auto": 7247,
      "##ikkä": 7248,
      "##omien": 7249,
      "entisen": 7250,
      "tunnusta": 7251,
      "tavallaan": 7252,
      "tarvita": 7253,
      "##myy": 7254,
      "kip": 7255,
      "##kymmentä": 7256,
      "##tisiv": 7257,
      "##dem": 7258,
      "##be": 7259,
      "##veli": 7260,
      "kosket": 7261,
      "jarr": 7262,
      "vaar": 7263,
      "ympärillä": 7264,
      "yllätys": 7265,
      "MT": 7266,
      "##jani": 7267,
      "##vian": 7268,
      "##emasta": 7269,
      "##suunnitel": 7270,
      "##tulo": 7271,
      "Myö": 7272,
      "inno": 7273,
      "tervet": 7274,
      "luottamus": 7275,
      "##erit": 7276,
      "paikkoja": 7277,
      "##paikalla": 7278,
      "sope": 7279,
      "##oidaan": 7280,
      "##IT": 7281,
      "##uvat": 7282,
      "kärs": 7283,
      "pettä": 7284,
      "autolla": 7285,
      "Lah": 7286,
      "käymään": 7287,
      "Epä": 7288,
      "toivoo": 7289,
      "liikkeelle": 7290,
      "Väh": 7291,
      "tarina": 7292,
      "muuhun": 7293,
      "myöskin": 7294,
      "lat": 7295,
      "parhaat": 7296,
      "myydä": 7297,
      "käte": 7298,
      "yhdistel": 7299,
      "voittoa": 7300,
      "##puu": 7301,
      "asioihin": 7302,
      "##kunut": 7303,
      "##lanti": 7304,
      "out": 7305,
      "Koh": 7306,
      "tota": 7307,
      "käyttämään": 7308,
      "##kija": 7309,
      "##illut": 7310,
      "##valvon": 7311,
      "##atteri": 7312,
      "käydään": 7313,
      "loppuu": 7314,
      "valitta": 7315,
      "##oaa": 7316,
      "tyyd": 7317,
      "riski": 7318,
      "##kijän": 7319,
      "Englannin": 7320,
      "Päivän": 7321,
      "##meren": 7322,
      "##kunto": 7323,
      "##eellisesti": 7324,
      "oven": 7325,
      "Suuri": 7326,
      "rakkaus": 7327,
      "äitin": 7328,
      "Suosit": 7329,
      "elokuvan": 7330,
      "pystynyt": 7331,
      "##ide": 7332,
      "sinänsä": 7333,
      "luvat": 7334,
      "hih": 7335,
      "vanhempi": 7336,
      "osasto": 7337,
      "##ruo": 7338,
      "##jasi": 7339,
      "video": 7340,
      "Siv": 7341,
      "##ologian": 7342,
      "tulleet": 7343,
      "##con": 7344,
      "radio": 7345,
      "täyttää": 7346,
      "kysymyksiä": 7347,
      "tyttä": 7348,
      "##ilemaan": 7349,
      "valittiin": 7350,
      "terä": 7351,
      "nis": 7352,
      "reag": 7353,
      "Hannu": 7354,
      "iski": 7355,
      "##lö": 7356,
      "##otul": 7357,
      "##ikoko": 7358,
      "##teille": 7359,
      "jauh": 7360,
      "känny": 7361,
      "##urva": 7362,
      "##kattu": 7363,
      "ilmais": 7364,
      "##lti": 7365,
      "opettaa": 7366,
      "ikävä": 7367,
      "resep": 7368,
      "helsin": 7369,
      "muttei": 7370,
      "##kri": 7371,
      "semm": 7372,
      "##puheen": 7373,
      "olenna": 7374,
      "##pyyn": 7375,
      "Nim": 7376,
      "hous": 7377,
      "##ikainen": 7378,
      "harr": 7379,
      "toisiaan": 7380,
      "##ityksessä": 7381,
      "##kausi": 7382,
      "toisista": 7383,
      "##myyn": 7384,
      "syyllist": 7385,
      "##elleen": 7386,
      "##yksikkö": 7387,
      "##AC": 7388,
      "##linnan": 7389,
      "##tuksessa": 7390,
      "vaikuttavat": 7391,
      "##ham": 7392,
      "Kaiken": 7393,
      "##lläni": 7394,
      "hallitse": 7395,
      "##kaver": 7396,
      "Kuus": 7397,
      "kertom": 7398,
      "sijoitus": 7399,
      "Silti": 7400,
      "lääke": 7401,
      "välittömästi": 7402,
      "yhdellä": 7403,
      "neuvot": 7404,
      "##liiken": 7405,
      "Will": 7406,
      "Tieto": 7407,
      "##eett": 7408,
      "Tilasto": 7409,
      "kuukausi": 7410,
      "##uuksista": 7411,
      "pelasta": 7412,
      "##iainen": 7413,
      "##kkaus": 7414,
      "Käs": 7415,
      "##sun": 7416,
      "##ivel": 7417,
      "Kuva": 7418,
      "##etusta": 7419,
      "##merk": 7420,
      "artikkel": 7421,
      "sö": 7422,
      "##attori": 7423,
      "muse": 7424,
      "tutustua": 7425,
      "ravintola": 7426,
      "Kuopion": 7427,
      "##SIN": 7428,
      "euroon": 7429,
      "Esit": 7430,
      "valtaa": 7431,
      "tilanteeseen": 7432,
      "ö": 7433,
      "silmät": 7434,
      "saattoi": 7435,
      "mieluummin": 7436,
      "turvaa": 7437,
      "nosti": 7438,
      "runko": 7439,
      "Seinä": 7440,
      "sh": 7441,
      "Päätö": 7442,
      "sehän": 7443,
      "##isyy": 7444,
      "kala": 7445,
      "##juus": 7446,
      "aiheutti": 7447,
      "koulutuksen": 7448,
      "Slo": 7449,
      "ihanaa": 7450,
      "prosentti": 7451,
      "alueilla": 7452,
      "murh": 7453,
      "Sami": 7454,
      "kilpa": 7455,
      "vankil": 7456,
      "##itettiin": 7457,
      "Aa": 7458,
      "2002": 7459,
      "osaksi": 7460,
      "peräkkä": 7461,
      "unionin": 7462,
      "syksyn": 7463,
      "liki": 7464,
      "monesti": 7465,
      "Yhdysvaltojen": 7466,
      "Inti": 7467,
      "##kell": 7468,
      "##ain": 7469,
      "##siin": 7470,
      "##ler": 7471,
      "##jäl": 7472,
      "##joilla": 7473,
      "##anin": 7474,
      "tei": 7475,
      "##umisesta": 7476,
      "##elu": 7477,
      "maailmanm": 7478,
      "##dia": 7479,
      "##kainen": 7480,
      "Ilman": 7481,
      "##öllä": 7482,
      "yhdistä": 7483,
      "pelaajat": 7484,
      "##edon": 7485,
      "##empiin": 7486,
      "hankala": 7487,
      "kerrosta": 7488,
      "sisälle": 7489,
      "haita": 7490,
      "katto": 7491,
      "syistä": 7492,
      "Oon": 7493,
      "##cel": 7494,
      "kaava": 7495,
      "avi": 7496,
      "##Pa": 7497,
      "asunnon": 7498,
      "##pala": 7499,
      "rento": 7500,
      "toisesta": 7501,
      "##osaa": 7502,
      "alalla": 7503,
      "##telussa": 7504,
      "##yöt": 7505,
      "##mmaa": 7506,
      "väärä": 7507,
      "Sim": 7508,
      "kyseen": 7509,
      "netistä": 7510,
      "##lait": 7511,
      "2001": 7512,
      "hevos": 7513,
      "Lä": 7514,
      "asiantuntija": 7515,
      "##koista": 7516,
      "##eho": 7517,
      "##paikat": 7518,
      "katker": 7519,
      "Toivon": 7520,
      "Mor": 7521,
      "laatu": 7522,
      "kiusaa": 7523,
      "nykyisen": 7524,
      "##llisin": 7525,
      "nukkumaan": 7526,
      "HIFK": 7527,
      "Isä": 7528,
      "rooli": 7529,
      "Varsina": 7530,
      "##koulu": 7531,
      "valitse": 7532,
      "##päivää": 7533,
      "liev": 7534,
      "Heidän": 7535,
      "aikataul": 7536,
      "tulivat": 7537,
      "Lisää": 7538,
      "##aste": 7539,
      "ulkopuolelle": 7540,
      "##tekni": 7541,
      "Talo": 7542,
      "versi": 7543,
      "aseman": 7544,
      "##kirjan": 7545,
      "Sat": 7546,
      "kannan": 7547,
      "liittyviä": 7548,
      "##palvelut": 7549,
      "muodos": 7550,
      "pysyä": 7551,
      "hark": 7552,
      "Med": 7553,
      "##umaan": 7554,
      "koulutusta": 7555,
      "##ranta": 7556,
      "tavoite": 7557,
      "kilpailuk": 7558,
      "##tamiin": 7559,
      "luotto": 7560,
      "kuului": 7561,
      "Aiemmin": 7562,
      "kausi": 7563,
      "##oitti": 7564,
      "koe": 7565,
      "##alisti": 7566,
      "##paikkoja": 7567,
      "kannattaisi": 7568,
      "unel": 7569,
      "vuotiaan": 7570,
      "pääasiassa": 7571,
      "##mys": 7572,
      "tarkkaan": 7573,
      "Sto": 7574,
      "##ie": 7575,
      "mor": 7576,
      "Ranta": 7577,
      "turvapaikan": 7578,
      "yleistä": 7579,
      "Sä": 7580,
      "automaattisesti": 7581,
      "johdon": 7582,
      "Näitä": 7583,
      "##fl": 7584,
      "tarvinnut": 7585,
      "koo": 7586,
      "mais": 7587,
      "##koihin": 7588,
      "laskea": 7589,
      "näyttely": 7590,
      "##holi": 7591,
      "##unen": 7592,
      "##peri": 7593,
      "Kunn": 7594,
      "perussuom": 7595,
      "otettiin": 7596,
      "##ikoissa": 7597,
      "##mahdollis": 7598,
      "idea": 7599,
      "Nato": 7600,
      "säily": 7601,
      "ajoneuv": 7602,
      "lähesty": 7603,
      "vamma": 7604,
      "##pät": 7605,
      "##mätöntä": 7606,
      "##utto": 7607,
      "##ettynä": 7608,
      "maku": 7609,
      "nimellä": 7610,
      "Tampere": 7611,
      "Finland": 7612,
      "Eilen": 7613,
      "sisar": 7614,
      "Mas": 7615,
      "tuntee": 7616,
      "muotoi": 7617,
      "ite": 7618,
      "nousta": 7619,
      "miltä": 7620,
      "suurimman": 7621,
      "tiu": 7622,
      "siirtyi": 7623,
      "yhteyden": 7624,
      "ilmaiseksi": 7625,
      "##cen": 7626,
      "Pu": 7627,
      "Lappeenr": 7628,
      "kesäkuussa": 7629,
      "kesti": 7630,
      "tuor": 7631,
      "##paik": 7632,
      "Maria": 7633,
      "laskee": 7634,
      "uskalla": 7635,
      "##otoim": 7636,
      "Gr": 7637,
      "##väksi": 7638,
      "##llisyyttä": 7639,
      "lääkär": 7640,
      "myöhään": 7641,
      "tullaan": 7642,
      "valtiovarain": 7643,
      "raskaan": 7644,
      "##maissa": 7645,
      "##issani": 7646,
      "##joissa": 7647,
      "kruun": 7648,
      "neuvottelut": 7649,
      "Ros": 7650,
      "Jalka": 7651,
      "lattia": 7652,
      "##paket": 7653,
      "Varsinkin": 7654,
      "pääosin": 7655,
      "##ppua": 7656,
      "pyöri": 7657,
      "##manin": 7658,
      "##ppiin": 7659,
      "estä": 7660,
      "epäsel": 7661,
      "täydellinen": 7662,
      "hinn": 7663,
      "soker": 7664,
      "tiennyt": 7665,
      "kit": 7666,
      "konkr": 7667,
      "tekisi": 7668,
      "kre": 7669,
      "rohke": 7670,
      "ali": 7671,
      "##yttämään": 7672,
      "Nykyään": 7673,
      "##stituut": 7674,
      "kurssi": 7675,
      "##iluo": 7676,
      "##pyörä": 7677,
      "säng": 7678,
      "Eivät": 7679,
      "Toivo": 7680,
      "##oppa": 7681,
      "HEL": 7682,
      "Hol": 7683,
      "kuvi": 7684,
      "lihas": 7685,
      "##ytän": 7686,
      "De": 7687,
      "toteut": 7688,
      "##kalle": 7689,
      "sähkön": 7690,
      "ohje": 7691,
      "alkoivat": 7692,
      "##ektr": 7693,
      "Markku": 7694,
      "sos": 7695,
      "maasto": 7696,
      "##iro": 7697,
      "Suomalaiset": 7698,
      "yksinä": 7699,
      "kanssaan": 7700,
      "päih": 7701,
      "##ergia": 7702,
      "voittoon": 7703,
      "energiaa": 7704,
      "syynä": 7705,
      "käyttävät": 7706,
      "##elim": 7707,
      "verkkos": 7708,
      "Mitään": 7709,
      "hum": 7710,
      "puolus": 7711,
      "koken": 7712,
      "Ty": 7713,
      "kieltää": 7714,
      "Miesten": 7715,
      "vaalit": 7716,
      "välistä": 7717,
      "kokous": 7718,
      "maksetaan": 7719,
      "##nös": 7720,
      "lähetti": 7721,
      "hammas": 7722,
      "sijoitta": 7723,
      "##iman": 7724,
      "juttua": 7725,
      "##ksista": 7726,
      "päätä": 7727,
      "opiskelija": 7728,
      "ennenkuin": 7729,
      "kerrottiin": 7730,
      "päättänyt": 7731,
      "kadon": 7732,
      "Mad": 7733,
      "ensimmäiset": 7734,
      "##äluo": 7735,
      "##maal": 7736,
      "##utensa": 7737,
      "kopi": 7738,
      "Lääkä": 7739,
      "##uunn": 7740,
      "suunniteltu": 7741,
      "loppua": 7742,
      "##AS": 7743,
      "Kaupungin": 7744,
      "soh": 7745,
      "hyvällä": 7746,
      "heittää": 7747,
      "65": 7748,
      "jalkapallo": 7749,
      "##netään": 7750,
      "maala": 7751,
      "##oaan": 7752,
      "keskuudessa": 7753,
      "##entä": 7754,
      "kiloa": 7755,
      "huomasin": 7756,
      "mielu": 7757,
      "klass": 7758,
      "oltiin": 7759,
      "enne": 7760,
      "luona": 7761,
      "Pitkä": 7762,
      "raiv": 7763,
      "tutustu": 7764,
      "##kiaan": 7765,
      "rajat": 7766,
      "##ympäristö": 7767,
      "mainittu": 7768,
      "ruk": 7769,
      "Tuomio": 7770,
      "##kkua": 7771,
      "tasan": 7772,
      "##politiikan": 7773,
      "##tilaisuudessa": 7774,
      "sulke": 7775,
      "##aamaan": 7776,
      "##attinen": 7777,
      "Bos": 7778,
      "##onia": 7779,
      "vitamiin": 7780,
      "##ustusta": 7781,
      "Kyllähän": 7782,
      "Yo": 7783,
      "Opp": 7784,
      "viettä": 7785,
      "vierail": 7786,
      "##istyy": 7787,
      "##ottelussa": 7788,
      "välittä": 7789,
      "hetke": 7790,
      "##aamuna": 7791,
      "hiihto": 7792,
      "##tut": 7793,
      "##rata": 7794,
      "##onal": 7795,
      "##kina": 7796,
      "ennätys": 7797,
      "vikaa": 7798,
      "##uksesi": 7799,
      "Sc": 7800,
      "##sp": 7801,
      "johdo": 7802,
      "viettää": 7803,
      "halut": 7804,
      "pääkaupunkise": 7805,
      "Tw": 7806,
      "##main": 7807,
      "ihmisistä": 7808,
      "##innot": 7809,
      "huolehti": 7810,
      "##äivät": 7811,
      "##uuksiin": 7812,
      "varti": 7813,
      "Ota": 7814,
      "Puna": 7815,
      "vapaasti": 7816,
      "##ikun": 7817,
      "##tug": 7818,
      "luottaa": 7819,
      "Ihmiset": 7820,
      "Tra": 7821,
      "##utumisen": 7822,
      "sinusta": 7823,
      "kilpaili": 7824,
      "esitti": 7825,
      "enemmistö": 7826,
      "tähti": 7827,
      "rakennettu": 7828,
      "Tuntuu": 7829,
      "kappaletta": 7830,
      "vaikutusta": 7831,
      "fa": 7832,
      "##alasta": 7833,
      "koet": 7834,
      "suv": 7835,
      "##omen": 7836,
      "käytiin": 7837,
      "Ap": 7838,
      "##oinut": 7839,
      "vaikkei": 7840,
      "semin": 7841,
      "merkittävästi": 7842,
      "tasolle": 7843,
      "rakastaa": 7844,
      "##pelin": 7845,
      "##uttaminen": 7846,
      "Muu": 7847,
      "Chr": 7848,
      "vaikutti": 7849,
      "##ossaan": 7850,
      "##alo": 7851,
      "tuomioistu": 7852,
      "##ux": 7853,
      "##ate": 7854,
      "luonto": 7855,
      "voimakkaasti": 7856,
      "katsoi": 7857,
      "ulkomailla": 7858,
      "bo": 7859,
      "##kokem": 7860,
      "##talia": 7861,
      "Pä": 7862,
      "##vid": 7863,
      "##ett": 7864,
      "##vala": 7865,
      "ensimmäisellä": 7866,
      "Äl": 7867,
      "mumm": 7868,
      "ulottu": 7869,
      "puolelta": 7870,
      "kohde": 7871,
      "fysi": 7872,
      "Mill": 7873,
      "henki": 7874,
      "joulukuussa": 7875,
      "järk": 7876,
      "oireita": 7877,
      "helpottaa": 7878,
      "toimittaja": 7879,
      "äs": 7880,
      "##anneet": 7881,
      "Minulle": 7882,
      "syyskuussa": 7883,
      "##ohjelman": 7884,
      "##mattoman": 7885,
      "auringon": 7886,
      "höl": 7887,
      "vastoin": 7888,
      "Lev": 7889,
      "säästä": 7890,
      "Tall": 7891,
      "##kilä": 7892,
      "pyyn": 7893,
      "synn": 7894,
      "##mmäs": 7895,
      "Jun": 7896,
      "pikk": 7897,
      "##neks": 7898,
      "osallistuu": 7899,
      "Bla": 7900,
      "nää": 7901,
      "pelkkää": 7902,
      "edustajat": 7903,
      "##maista": 7904,
      "€": 7905,
      "##ppien": 7906,
      "Valit": 7907,
      "riippumatta": 7908,
      "selkeä": 7909,
      "lähelle": 7910,
      "sävel": 7911,
      "Espoon": 7912,
      "kuunnella": 7913,
      "kärsin": 7914,
      "##isilta": 7915,
      "##neksen": 7916,
      "uskovat": 7917,
      "suomessa": 7918,
      "##vist": 7919,
      "syksynä": 7920,
      "##laat": 7921,
      "selviä": 7922,
      "osallistui": 7923,
      "##dika": 7924,
      "tarpee": 7925,
      "Lan": 7926,
      "ensisija": 7927,
      "jaksan": 7928,
      "uudesta": 7929,
      "##impp": 7930,
      "tytön": 7931,
      "tehtyä": 7932,
      "tuollainen": 7933,
      "kansanedustaja": 7934,
      "##ttin": 7935,
      "kertoivat": 7936,
      "Finn": 7937,
      "valh": 7938,
      "##masi": 7939,
      "##usen": 7940,
      "ajattel": 7941,
      "Pyhä": 7942,
      "ets": 7943,
      "vittu": 7944,
      "##sille": 7945,
      "kirjaa": 7946,
      "Valtio": 7947,
      "##maksa": 7948,
      "yleinen": 7949,
      "sd": 7950,
      "tunnetaan": 7951,
      "##kulttuu": 7952,
      "##ikymmentä": 7953,
      "evoluut": 7954,
      "##iseltä": 7955,
      "tuol": 7956,
      "##atterin": 7957,
      "Sun": 7958,
      "##öistä": 7959,
      "riippuen": 7960,
      "##istot": 7961,
      "Finna": 7962,
      "hintaan": 7963,
      "tammikuussa": 7964,
      "avat": 7965,
      "vähentä": 7966,
      "Usein": 7967,
      "##ston": 7968,
      "##ettäisiin": 7969,
      "195": 7970,
      "työntekijä": 7971,
      "##liä": 7972,
      "viranomaisten": 7973,
      "uskotta": 7974,
      "Gu": 7975,
      "##ikkaus": 7976,
      "Turkin": 7977,
      "jumala": 7978,
      "##evä": 7979,
      "vanhat": 7980,
      "pankki": 7981,
      "tyhjen": 7982,
      "##iikin": 7983,
      "puutar": 7984,
      "käteen": 7985,
      "tavallista": 7986,
      "pääsy": 7987,
      "pär": 7988,
      "##zin": 7989,
      "enemmänkin": 7990,
      "##pon": 7991,
      "Korean": 7992,
      "välin": 7993,
      "ajassa": 7994,
      "poikkea": 7995,
      "jäsenet": 7996,
      "leff": 7997,
      "Tha": 7998,
      "meidät": 7999,
      "##otin": 8000,
      "suomi": 8001,
      "erilainen": 8002,
      "maatalous": 8003,
      "##ström": 8004,
      "paremm": 8005,
      "sär": 8006,
      "pistä": 8007,
      "##llat": 8008,
      "Porin": 8009,
      "Naton": 8010,
      "pelkä": 8011,
      "##ktiiv": 8012,
      "lään": 8013,
      "kasin": 8014,
      "Tuli": 8015,
      "toimimaan": 8016,
      "suru": 8017,
      "##järjestön": 8018,
      "Talv": 8019,
      "tärkeitä": 8020,
      "##US": 8021,
      "09": 8022,
      "Seura": 8023,
      "kerra": 8024,
      "##tilaa": 8025,
      "roman": 8026,
      "Niiden": 8027,
      "palkinto": 8028,
      "##korva": 8029,
      "pistää": 8030,
      "tis": 8031,
      "tapauksissa": 8032,
      "Jyr": 8033,
      "##bjek": 8034,
      "##insa": 8035,
      "Con": 8036,
      "edeltä": 8037,
      "tiedotteessa": 8038,
      "##sast": 8039,
      "hill": 8040,
      "##kijoita": 8041,
      "##eliä": 8042,
      "##tehtä": 8043,
      "toisiin": 8044,
      "Vantaan": 8045,
      "rata": 8046,
      "##hl": 8047,
      "tarkasti": 8048,
      "varmistaa": 8049,
      "massa": 8050,
      "miin": 8051,
      "kahdella": 8052,
      "##ure": 8053,
      "taisi": 8054,
      "työhön": 8055,
      "vauvan": 8056,
      "tukee": 8057,
      "median": 8058,
      "##liigan": 8059,
      "##alueella": 8060,
      "palkan": 8061,
      "viho": 8062,
      "##elleet": 8063,
      "##televät": 8064,
      "pojat": 8065,
      "ihmeessä": 8066,
      "##mes": 8067,
      "pääsevät": 8068,
      "##opper": 8069,
      "aikoihin": 8070,
      "turhaa": 8071,
      "##bert": 8072,
      "191": 8073,
      "een": 8074,
      "ylipää": 8075,
      "maaliskuussa": 8076,
      "piis": 8077,
      "suojaa": 8078,
      "##umpi": 8079,
      "raiska": 8080,
      "vuodelta": 8081,
      "##oituksen": 8082,
      "puoleen": 8083,
      "TPS": 8084,
      "sanat": 8085,
      "Pääministeri": 8086,
      "##telija": 8087,
      "cm": 8088,
      "HELSIN": 8089,
      "elokuussa": 8090,
      "Syyrian": 8091,
      "kumpi": 8092,
      "##poja": 8093,
      "päiväko": 8094,
      "##aut": 8095,
      "suora": 8096,
      "##cm": 8097,
      "suhteellisen": 8098,
      "##opol": 8099,
      "muistel": 8100,
      "tietyn": 8101,
      "##tisti": 8102,
      "##osentti": 8103,
      "toist": 8104,
      "##astusta": 8105,
      "EI": 8106,
      "sopivat": 8107,
      "kiertu": 8108,
      "urheilu": 8109,
      "rek": 8110,
      "astetta": 8111,
      "käsittää": 8112,
      "44": 8113,
      "hyvässä": 8114,
      "maakunta": 8115,
      "Halonen": 8116,
      "mahdotonta": 8117,
      "useamman": 8118,
      "##kaupp": 8119,
      "Huh": 8120,
      "##lantila": 8121,
      "##inne": 8122,
      "keskustelun": 8123,
      "suva": 8124,
      "##kirj": 8125,
      "asiakkaan": 8126,
      "vakuut": 8127,
      "##vuoro": 8128,
      "liigassa": 8129,
      "Vaasan": 8130,
      "##jut": 8131,
      "Perus": 8132,
      "julkisen": 8133,
      "kysymykseen": 8134,
      "tulen": 8135,
      "##del": 8136,
      "yritän": 8137,
      "neljäs": 8138,
      "Ran": 8139,
      "parlamentti": 8140,
      "oikeaa": 8141,
      "##sään": 8142,
      "##keissä": 8143,
      "ympäristön": 8144,
      "yhteistyössä": 8145,
      "vieläkään": 8146,
      "lakia": 8147,
      "Bras": 8148,
      "Hom": 8149,
      "hallinn": 8150,
      "hier": 8151,
      "##istuvat": 8152,
      "kuukaudessa": 8153,
      "##ulin": 8154,
      "##tikorkea": 8155,
      "Molemmat": 8156,
      "##teä": 8157,
      "##isimme": 8158,
      "Tie": 8159,
      "viikonloppu": 8160,
      "kyyn": 8161,
      "##isyyd": 8162,
      "##burg": 8163,
      "Sekä": 8164,
      "##fan": 8165,
      "##ismia": 8166,
      "välier": 8167,
      "Egyp": 8168,
      "väkiva": 8169,
      "HELSINKI": 8170,
      "##ohjelma": 8171,
      "##ssia": 8172,
      "ruv": 8173,
      "##ukassa": 8174,
      "eurolla": 8175,
      "markan": 8176,
      "uutistoimisto": 8177,
      "velka": 8178,
      "Japanin": 8179,
      "maali": 8180,
      "Turussa": 8181,
      "Gran": 8182,
      "hyvinvointi": 8183,
      "onnellinen": 8184,
      "vaiv": 8185,
      "antavat": 8186,
      "käytti": 8187,
      "##televa": 8188,
      "järkeä": 8189,
      "Kyl": 8190,
      "##tasa": 8191,
      "tasapain": 8192,
      "takuu": 8193,
      "##arkkin": 8194,
      "voiko": 8195,
      "##mann": 8196,
      "elämänsä": 8197,
      "ravinto": 8198,
      "kasvatta": 8199,
      "sät": 8200,
      "##laisille": 8201,
      "innos": 8202,
      "##sarjan": 8203,
      "isänn": 8204,
      "hinnan": 8205,
      "nen": 8206,
      "tonn": 8207,
      "vaaleissa": 8208,
      "##ore": 8209,
      "paskaa": 8210,
      "liikenteen": 8211,
      "##kkeita": 8212,
      "co": 8213,
      "##emies": 8214,
      "nopeammin": 8215,
      "tyhmä": 8216,
      "700": 8217,
      "hyväksyä": 8218,
      "Mil": 8219,
      "keksin": 8220,
      "asioissa": 8221,
      "##ottamaan": 8222,
      "talossa": 8223,
      "##altaa": 8224,
      "välttää": 8225,
      "##uttaja": 8226,
      "irr": 8227,
      "ottaen": 8228,
      "antamaan": 8229,
      "Windows": 8230,
      "tietävät": 8231,
      "ison": 8232,
      "##ikosta": 8233,
      "jäte": 8234,
      "##uaan": 8235,
      "Vapaa": 8236,
      "##kela": 8237,
      "vaki": 8238,
      "aikais": 8239,
      "samanlainen": 8240,
      "##aset": 8241,
      "asettaa": 8242,
      "kansalaisten": 8243,
      "suorastaan": 8244,
      "##vih": 8245,
      "##ilaa": 8246,
      "talvi": 8247,
      "näyttävät": 8248,
      "Tapahtu": 8249,
      "jutun": 8250,
      "##annen": 8251,
      "39": 8252,
      "isoja": 8253,
      "##mpaan": 8254,
      "Kuv": 8255,
      "kynn": 8256,
      "väri": 8257,
      "Oikeus": 8258,
      "##kisen": 8259,
      "##eeta": 8260,
      "##ittua": 8261,
      "##uunnitel": 8262,
      "vastaavan": 8263,
      "Vol": 8264,
      "##OS": 8265,
      "typer": 8266,
      "##meisesti": 8267,
      "hyöty": 8268,
      "hoitoa": 8269,
      "##pus": 8270,
      "korkei": 8271,
      "kristitty": 8272,
      "kukka": 8273,
      "kierroksen": 8274,
      "##lad": 8275,
      "edistää": 8276,
      "oikeesti": 8277,
      "vaihtoehtoja": 8278,
      "Välillä": 8279,
      "tutk": 8280,
      "##ikansa": 8281,
      "moder": 8282,
      "##isestään": 8283,
      "sydäm": 8284,
      "avioliit": 8285,
      "##kad": 8286,
      "##empänä": 8287,
      "##ittäminen": 8288,
      "##telyä": 8289,
      "##ukat": 8290,
      "tosissaan": 8291,
      "Hallituksen": 8292,
      "itsemur": 8293,
      "ilmoittanut": 8294,
      "Jääki": 8295,
      "##isinä": 8296,
      "harjoitus": 8297,
      "mul": 8298,
      "palvelun": 8299,
      "myynn": 8300,
      "puheenjohtajan": 8301,
      "velvoit": 8302,
      "les": 8303,
      "##voimien": 8304,
      "parhaa": 8305,
      "ennä": 8306,
      "soi": 8307,
      "ab": 8308,
      "##attua": 8309,
      "sula": 8310,
      "##hoidon": 8311,
      "saataisiin": 8312,
      "##vali": 8313,
      "selvitys": 8314,
      "##teensa": 8315,
      "##tm": 8316,
      "Käytänn": 8317,
      "pila": 8318,
      "monella": 8319,
      "suomenkiel": 8320,
      "##uomio": 8321,
      "esitetty": 8322,
      "samoja": 8323,
      "näköjään": 8324,
      "##eha": 8325,
      "##stro": 8326,
      "Kah": 8327,
      "Kesä": 8328,
      "väärässä": 8329,
      "##tsin": 8330,
      "kokoonpan": 8331,
      "huippu": 8332,
      "##olassa": 8333,
      "Lonto": 8334,
      "katson": 8335,
      "##ikoja": 8336,
      "##itellen": 8337,
      "##oissaan": 8338,
      "##ilän": 8339,
      "kg": 8340,
      "star": 8341,
      "kulutus": 8342,
      "rut": 8343,
      "ilmesty": 8344,
      "hankke": 8345,
      "##itter": 8346,
      "matala": 8347,
      "Manner": 8348,
      "seuraavana": 8349,
      "Hil": 8350,
      "##eskus": 8351,
      "muualle": 8352,
      "Tarja": 8353,
      "##toilla": 8354,
      "pin": 8355,
      "##ivoim": 8356,
      "pelastus": 8357,
      "painaa": 8358,
      "hakee": 8359,
      "helpompi": 8360,
      "olisiko": 8361,
      "Alex": 8362,
      "##altaan": 8363,
      "väliaika": 8364,
      "##misella": 8365,
      "Aino": 8366,
      "Milla": 8367,
      "vasemmisto": 8368,
      "näen": 8369,
      "Sor": 8370,
      "seurakunta": 8371,
      "##siir": 8372,
      "##udin": 8373,
      "vaatteita": 8374,
      "jumal": 8375,
      "asteen": 8376,
      "##ES": 8377,
      "geen": 8378,
      "##imiel": 8379,
      "epät": 8380,
      "42": 8381,
      "kaikkiin": 8382,
      "##annin": 8383,
      "Tsh": 8384,
      "##vaiheessa": 8385,
      "kutsutaan": 8386,
      "totuuden": 8387,
      "persoona": 8388,
      "tunteita": 8389,
      "pehme": 8390,
      "tuhoa": 8391,
      "asiana": 8392,
      "Pes": 8393,
      "vakava": 8394,
      "##rinen": 8395,
      "##innalla": 8396,
      "ihmisoike": 8397,
      "##ylle": 8398,
      "Sunnunta": 8399,
      "ohjelmassa": 8400,
      "jälke": 8401,
      "vaikuta": 8402,
      "löydät": 8403,
      "Perjanta": 8404,
      "aihetta": 8405,
      "##osof": 8406,
      "##llasta": 8407,
      "##umaa": 8408,
      "edellyt": 8409,
      "ajatellut": 8410,
      "turvapaikanha": 8411,
      "maalivahti": 8412,
      "puuttu": 8413,
      "Itselläni": 8414,
      "ahker": 8415,
      "parlamentin": 8416,
      "työt": 8417,
      "hyöd": 8418,
      "käytö": 8419,
      "laiv": 8420,
      "##paus": 8421,
      "kem": 8422,
      "Olisiko": 8423,
      "Sav": 8424,
      "monin": 8425,
      "työntekijöiden": 8426,
      "##ij": 8427,
      "Tää": 8428,
      "##yttänyt": 8429,
      "##valtuus": 8430,
      "toukokuussa": 8431,
      "ryös": 8432,
      "merkkiä": 8433,
      "##fiil": 8434,
      "luvassa": 8435,
      "verkossa": 8436,
      "ryhd": 8437,
      "##änne": 8438,
      "luokkaa": 8439,
      "##ds": 8440,
      "abor": 8441,
      "keskittyä": 8442,
      "##ikoina": 8443,
      "vajaat": 8444,
      "##kih": 8445,
      "merkitsee": 8446,
      "Työn": 8447,
      "nolla": 8448,
      "vajaa": 8449,
      "kaikessa": 8450,
      "tyhjä": 8451,
      "kirjoitus": 8452,
      "alkua": 8453,
      "pyörit": 8454,
      "opinto": 8455,
      "tyyliin": 8456,
      "turhaan": 8457,
      "mahtuu": 8458,
      "##idassa": 8459,
      "siviil": 8460,
      "Tasa": 8461,
      "kolmanneksi": 8462,
      "opis": 8463,
      "välein": 8464,
      "##istukseen": 8465,
      "##mpiä": 8466,
      "##silla": 8467,
      "em": 8468,
      "##tissä": 8469,
      "miehelle": 8470,
      "kirjoittaja": 8471,
      "kyseisen": 8472,
      "ties": 8473,
      "pyyh": 8474,
      "Nieminen": 8475,
      "muutosta": 8476,
      "paks": 8477,
      "keskustassa": 8478,
      "PS": 8479,
      "komission": 8480,
      "esiko": 8481,
      "##tistä": 8482,
      "##itoja": 8483,
      "osana": 8484,
      "##oloa": 8485,
      "##yhdistys": 8486,
      "valtakunna": 8487,
      "syömään": 8488,
      "Yhteis": 8489,
      "myönte": 8490,
      "Rauta": 8491,
      "##hiljaa": 8492,
      "Korh": 8493,
      "kertaan": 8494,
      "##mukais": 8495,
      "Kil": 8496,
      "arvioida": 8497,
      "pomm": 8498,
      "juna": 8499,
      "##kasvat": 8500,
      "sydämen": 8501,
      "##ohja": 8502,
      "Lähi": 8503,
      "jääkiekko": 8504,
      "reilusti": 8505,
      "##tavaa": 8506,
      "väkisin": 8507,
      "##itali": 8508,
      "##ret": 8509,
      "elim": 8510,
      "eka": 8511,
      "liikkeen": 8512,
      "kisat": 8513,
      "herä": 8514,
      "tason": 8515,
      "Super": 8516,
      "paikkakunn": 8517,
      "##NA": 8518,
      "yritetään": 8519,
      "##tot": 8520,
      "toimenpit": 8521,
      "##tand": 8522,
      "##ski": 8523,
      "##voja": 8524,
      "Ainoa": 8525,
      "##TI": 8526,
      "Pas": 8527,
      "Bor": 8528,
      "Niinpä": 8529,
      "##elli": 8530,
      "kiit": 8531,
      "Usei": 8532,
      "Luonn": 8533,
      "saapu": 8534,
      "tekemis": 8535,
      "taide": 8536,
      "nöyr": 8537,
      "##ettomuus": 8538,
      "Afrikan": 8539,
      "varrella": 8540,
      "##ytön": 8541,
      "korr": 8542,
      "jäivät": 8543,
      "##lahden": 8544,
      "##tyminen": 8545,
      "pöl": 8546,
      "##kautta": 8547,
      "turhan": 8548,
      "##qu": 8549,
      "##ulais": 8550,
      "##leh": 8551,
      "syv": 8552,
      "pöytä": 8553,
      "äänes": 8554,
      "kulut": 8555,
      "##seen": 8556,
      "herää": 8557,
      "##ag": 8558,
      "tuhat": 8559,
      "##ihi": 8560,
      "uk": 8561,
      "ensimmäisessä": 8562,
      "##llisuuteen": 8563,
      "tekivät": 8564,
      "Martti": 8565,
      "konkur": 8566,
      "##lat": 8567,
      "Tri": 8568,
      "palata": 8569,
      "tarpeet": 8570,
      "Lauri": 8571,
      "mielipiteitä": 8572,
      "tutkia": 8573,
      "Soini": 8574,
      "tallen": 8575,
      "hallussa": 8576,
      "##miesten": 8577,
      "##areita": 8578,
      "##opea": 8579,
      "vertail": 8580,
      "##YP": 8581,
      "##kysym": 8582,
      "välinen": 8583,
      "noi": 8584,
      "sellaiset": 8585,
      "##yin": 8586,
      "Oba": 8587,
      "##maansa": 8588,
      "lähetys": 8589,
      "kristin": 8590,
      "saatan": 8591,
      "##itan": 8592,
      "elän": 8593,
      "43": 8594,
      "moneen": 8595,
      "Tietysti": 8596,
      "##estyks": 8597,
      "pahan": 8598,
      "päivät": 8599,
      "päinvastoin": 8600,
      "nousu": 8601,
      "maaliin": 8602,
      "keväänä": 8603,
      "vaaditaan": 8604,
      "Myöh": 8605,
      "sie": 8606,
      "omiin": 8607,
      "eil": 8608,
      "##piste": 8609,
      "versio": 8610,
      "marraskuussa": 8611,
      "##teelle": 8612,
      "##nia": 8613,
      "jutut": 8614,
      "luonnollisesti": 8615,
      "ennus": 8616,
      "suomalaisista": 8617,
      "##reja": 8618,
      "##jilta": 8619,
      "##naan": 8620,
      "##vik": 8621,
      "radi": 8622,
      "ara": 8623,
      "##isitte": 8624,
      "sir": 8625,
      "testi": 8626,
      "huoleh": 8627,
      "nuoren": 8628,
      "##emminkin": 8629,
      "syl": 8630,
      "kih": 8631,
      "##misti": 8632,
      "##viraston": 8633,
      "glo": 8634,
      "korko": 8635,
      "kehityksen": 8636,
      "##vinen": 8637,
      "millainen": 8638,
      "##hal": 8639,
      "##vainen": 8640,
      "##kkuus": 8641,
      "Ny": 8642,
      "apu": 8643,
      "saavut": 8644,
      "Ammat": 8645,
      "varasto": 8646,
      "seuraavaksi": 8647,
      "ilmaan": 8648,
      "Jäl": 8649,
      "menne": 8650,
      "ag": 8651,
      "##istojen": 8652,
      "##vos": 8653,
      "##ikalla": 8654,
      "todeta": 8655,
      "hyökkäys": 8656,
      "##itusta": 8657,
      "alus": 8658,
      "##ner": 8659,
      "##doks": 8660,
      "##teta": 8661,
      "##ssiin": 8662,
      "ääntä": 8663,
      "##iväli": 8664,
      "##ivuot": 8665,
      "Brys": 8666,
      "kirjoitettu": 8667,
      "irtisano": 8668,
      "loukkaa": 8669,
      "kahdessa": 8670,
      "säännöllisesti": 8671,
      "##etys": 8672,
      "tulipal": 8673,
      "Liisa": 8674,
      "suorittaa": 8675,
      "yllättävän": 8676,
      "##ksesi": 8677,
      "demokrat": 8678,
      "paikasta": 8679,
      "katoa": 8680,
      "Merk": 8681,
      "naura": 8682,
      "taul": 8683,
      "##etar": 8684,
      "Peruss": 8685,
      "kilpailussa": 8686,
      "##pyh": 8687,
      "Venälä": 8688,
      "##yteen": 8689,
      "avain": 8690,
      "aiempaa": 8691,
      "pidetty": 8692,
      "##ympp": 8693,
      "##vältä": 8694,
      "Alan": 8695,
      "tr": 8696,
      "##stön": 8697,
      "##paper": 8698,
      "Trump": 8699,
      "toimesta": 8700,
      "##opin": 8701,
      "salli": 8702,
      "öljyn": 8703,
      "rauhoit": 8704,
      "käynnissä": 8705,
      "loukkaantui": 8706,
      "##utuivat": 8707,
      "todettu": 8708,
      "##ilais": 8709,
      "uransa": 8710,
      "##jina": 8711,
      "hyll": 8712,
      "##eemme": 8713,
      "48": 8714,
      "RED": 8715,
      "##bergin": 8716,
      "##uskon": 8717,
      "ongelmaa": 8718,
      "##oimalla": 8719,
      "ohjaus": 8720,
      "työstä": 8721,
      "##itellä": 8722,
      "mestaruus": 8723,
      "sekaisin": 8724,
      "tuotteet": 8725,
      "nuoris": 8726,
      "yo": 8727,
      "hallin": 8728,
      "evankeli": 8729,
      "##taito": 8730,
      "Brit": 8731,
      "##vatiiv": 8732,
      "kata": 8733,
      "hienosti": 8734,
      "kirjat": 8735,
      "opettaja": 8736,
      "ryt": 8737,
      "tiellä": 8738,
      "##köön": 8739,
      "##JK": 8740,
      "Air": 8741,
      "johdosta": 8742,
      "Di": 8743,
      "mielikuv": 8744,
      "kylä": 8745,
      "ydinvoim": 8746,
      "ilmaston": 8747,
      "Puolustus": 8748,
      "Petri": 8749,
      "islam": 8750,
      "poim": 8751,
      "##psa": 8752,
      "pelaamaan": 8753,
      "##dys": 8754,
      "hämä": 8755,
      "suurläh": 8756,
      "##jälle": 8757,
      "satunna": 8758,
      "valvonta": 8759,
      "##immaksi": 8760,
      "##ssien": 8761,
      "yhdistää": 8762,
      "Kolme": 8763,
      "##ekki": 8764,
      "tapahtumia": 8765,
      "kuiva": 8766,
      "##imies": 8767,
      "valvo": 8768,
      "##yönti": 8769,
      "##alisesti": 8770,
      "jalat": 8771,
      "##uos": 8772,
      "muualta": 8773,
      "Teemu": 8774,
      "toisi": 8775,
      "iloinen": 8776,
      "puolia": 8777,
      "##umassa": 8778,
      "todellisuudessa": 8779,
      "41": 8780,
      "##hdessa": 8781,
      "##uttavaa": 8782,
      "##astosta": 8783,
      "päästään": 8784,
      "päätöksiä": 8785,
      "##udan": 8786,
      "budjetti": 8787,
      "##vaatim": 8788,
      "menin": 8789,
      "##uslaitoksen": 8790,
      "##ikset": 8791,
      "##ytyn": 8792,
      "meri": 8793,
      "edustaa": 8794,
      "näköinen": 8795,
      "todistaa": 8796,
      "toivoa": 8797,
      "##ash": 8798,
      "mahdollistaa": 8799,
      "ajaksi": 8800,
      "##tieto": 8801,
      "##kiat": 8802,
      "##tiaan": 8803,
      "##istinen": 8804,
      "##opo": 8805,
      "##lay": 8806,
      "##ehen": 8807,
      "esityksen": 8808,
      "Voin": 8809,
      "tavara": 8810,
      "Clin": 8811,
      "nyr": 8812,
      "##oinen": 8813,
      "varova": 8814,
      "duun": 8815,
      "##br": 8816,
      "##itor": 8817,
      "##mela": 8818,
      "##ittelee": 8819,
      "Tällöin": 8820,
      "haitta": 8821,
      "Erkki": 8822,
      "Portug": 8823,
      "Mestar": 8824,
      "pelataan": 8825,
      "kuningas": 8826,
      "##malta": 8827,
      "kot": 8828,
      "46": 8829,
      "sanoja": 8830,
      "asenne": 8831,
      "##eloku": 8832,
      "Net": 8833,
      "##ettujen": 8834,
      "sijoittui": 8835,
      "##elit": 8836,
      "käyvät": 8837,
      "neuvo": 8838,
      "kelta": 8839,
      "ajoissa": 8840,
      "tappaa": 8841,
      "##vällä": 8842,
      "Tuolla": 8843,
      "tera": 8844,
      "yhteiskunna": 8845,
      "##istua": 8846,
      "yhteistä": 8847,
      "##ivir": 8848,
      "##kittiin": 8849,
      "Erityisesti": 8850,
      "pienemm": 8851,
      "seurus": 8852,
      "harha": 8853,
      "##koilla": 8854,
      "kirjasto": 8855,
      "miettimään": 8856,
      "mainos": 8857,
      "hiukset": 8858,
      "miljoona": 8859,
      "kehittämis": 8860,
      "##istettiin": 8861,
      "Willia": 8862,
      "päivittä": 8863,
      "ajattelee": 8864,
      "leik": 8865,
      "Perussuom": 8866,
      "lipp": 8867,
      "##vaara": 8868,
      "kump": 8869,
      "keng": 8870,
      "tyyppi": 8871,
      "osannut": 8872,
      "huolissaan": 8873,
      "Uni": 8874,
      "Ilmeisesti": 8875,
      "##saan": 8876,
      "kehitystä": 8877,
      "rakkautta": 8878,
      "##eton": 8879,
      "järjestön": 8880,
      "työntekijää": 8881,
      "##ACT": 8882,
      "SAK": 8883,
      "ohjelmaa": 8884,
      "meno": 8885,
      "useammin": 8886,
      "varat": 8887,
      "Risto": 8888,
      "mukanaan": 8889,
      "tapahtun": 8890,
      "##kesi": 8891,
      "Kale": 8892,
      "Rei": 8893,
      "johtuen": 8894,
      "liittyen": 8895,
      "##ytö": 8896,
      "muistutti": 8897,
      "tapahtua": 8898,
      "##telemään": 8899,
      "kahdesta": 8900,
      "##uslaitos": 8901,
      "##valtion": 8902,
      "miljardin": 8903,
      "##joki": 8904,
      "puun": 8905,
      "saamme": 8906,
      "##tuun": 8907,
      "isot": 8908,
      "aktiivisesti": 8909,
      "toiminnasta": 8910,
      "##matonta": 8911,
      "##ipäiv": 8912,
      "reun": 8913,
      "##kuljet": 8914,
      "Tavoitteena": 8915,
      "useimmiten": 8916,
      "Ilkka": 8917,
      "poikki": 8918,
      "HP": 8919,
      "prin": 8920,
      "suoritus": 8921,
      "teatter": 8922,
      "vaatia": 8923,
      "veh": 8924,
      "##köhän": 8925,
      "##uutena": 8926,
      "sivuilla": 8927,
      "##ACTED": 8928,
      "REDACTED": 8929,
      "bio": 8930,
      "Tilanne": 8931,
      "Kats": 8932,
      "näytel": 8933,
      "##uvasti": 8934,
      "##verta": 8935,
      "##entia": 8936,
      "kerrallaan": 8937,
      "##masti": 8938,
      "##nalle": 8939,
      "käsittely": 8940,
      "##fr": 8941,
      "##llanen": 8942,
      "##enkki": 8943,
      "idio": 8944,
      "muistaakseni": 8945,
      "peil": 8946,
      "##BC": 8947,
      "##muksen": 8948,
      "gen": 8949,
      "Goog": 8950,
      "alkoholin": 8951,
      "toisistaan": 8952,
      "##eraan": 8953,
      "kasvua": 8954,
      "nähtiin": 8955,
      "toh": 8956,
      "päivinä": 8957,
      "maksi": 8958,
      "##nellä": 8959,
      "Sis": 8960,
      "laihd": 8961,
      "lokakuussa": 8962,
      "##kohan": 8963,
      "##iven": 8964,
      "kielletty": 8965,
      "Helsinkiin": 8966,
      "sijasta": 8967,
      "käyty": 8968,
      "osaan": 8969,
      "sanomal": 8970,
      "uskonto": 8971,
      "sanoen": 8972,
      "palkinnon": 8973,
      "käsitellään": 8974,
      "loppuot": 8975,
      "##lund": 8976,
      "näki": 8977,
      "kokoa": 8978,
      "käytettävissä": 8979,
      "valmiina": 8980,
      "mallia": 8981,
      "voimaa": 8982,
      "##vojen": 8983,
      "##uhde": 8984,
      "##jältä": 8985,
      "##issakin": 8986,
      "pudotuspel": 8987,
      "##tilo": 8988,
      "perustaa": 8989,
      "##rista": 8990,
      "puhe": 8991,
      "äänestys": 8992,
      "##timme": 8993,
      "eiköhän": 8994,
      "##tutkim": 8995,
      "eron": 8996,
      "##tanto": 8997,
      "otin": 8998,
      "##kkosen": 8999,
      "kauhe": 9000,
      "Col": 9001,
      "ihon": 9002,
      "##kunnasta": 9003,
      "arkkit": 9004,
      "rist": 9005,
      "Pikku": 9006,
      "##isuudessaan": 9007,
      "yliopistossa": 9008,
      "jousta": 9009,
      "minkäänlaista": 9010,
      "markkinoilla": 9011,
      "paken": 9012,
      "##llisyyden": 9013,
      "Enkä": 9014,
      "vastuuta": 9015,
      "kokoomuksen": 9016,
      "jalan": 9017,
      "Herran": 9018,
      "Kokko": 9019,
      "mielenosoit": 9020,
      "kokee": 9021,
      "Lento": 9022,
      "##ilaisten": 9023,
      "##ättiin": 9024,
      "##asema": 9025,
      "vaatteet": 9026,
      "enään": 9027,
      "##nassa": 9028,
      "rin": 9029,
      "kassa": 9030,
      "##opuol": 9031,
      "muutoin": 9032,
      "liikkuu": 9033,
      "tekstiä": 9034,
      "##KO": 9035,
      "festiva": 9036,
      "##pitel": 9037,
      "vastaavat": 9038,
      "##enter": 9039,
      "käsitellä": 9040,
      "tutkija": 9041,
      "##kär": 9042,
      "tämm": 9043,
      "##koulut": 9044,
      "Aar": 9045,
      "muutokset": 9046,
      "##isikin": 9047,
      "Poika": 9048,
      "1999": 9049,
      "##ikympp": 9050,
      "##aarissa": 9051,
      "Asiasta": 9052,
      "johdolla": 9053,
      "vaihta": 9054,
      "heil": 9055,
      "Juhani": 9056,
      "vastausta": 9057,
      "lintu": 9058,
      "##mättöm": 9059,
      "##lassa": 9060,
      "##dor": 9061,
      "kyseinen": 9062,
      "Mari": 9063,
      "##TE": 9064,
      "sopivan": 9065,
      "##mattomia": 9066,
      "myöten": 9067,
      "Valio": 9068,
      "syöttö": 9069,
      "vuodeksi": 9070,
      "##uno": 9071,
      "##ologia": 9072,
      "kisan": 9073,
      "Näiden": 9074,
      "##kisti": 9075,
      "joulun": 9076,
      "##etuista": 9077,
      "johtajan": 9078,
      "helmikuussa": 9079,
      "##järjestöjen": 9080,
      "alkoholi": 9081,
      "##uloa": 9082,
      "##vata": 9083,
      "katsella": 9084,
      "##empiä": 9085,
      "uskotaan": 9086,
      "Angel": 9087,
      "enintään": 9088,
      "##loma": 9089,
      "arvoa": 9090,
      "Viranoma": 9091,
      "Py": 9092,
      "##ruot": 9093,
      "Jumalaa": 9094,
      "matkaan": 9095,
      "##ckin": 9096,
      "##ksesta": 9097,
      "##istuksessa": 9098,
      "erilaiset": 9099,
      "tavallinen": 9100,
      "äärimmäisen": 9101,
      "##käynti": 9102,
      "##kohtaisesti": 9103,
      "homo": 9104,
      "autoja": 9105,
      "edestä": 9106,
      "täyteen": 9107,
      "##kenta": 9108,
      "Tuskin": 9109,
      "##vamma": 9110,
      "saapui": 9111,
      "Wal": 9112,
      "kansainvälinen": 9113,
      "Suomalainen": 9114,
[...]
